{
  "version": "1.0",
  "truncation": null,
  "padding": null,
  "added_tokens": [
    {
      "id": 0,
      "content": "<pad>",
      "single_word": false,
      "lstrip": false,
      "rstrip": false,
      "normalized": false,
      "special": true
    },
    {
      "id": 1,
      "content": "<unk>",
      "single_word": false,
      "lstrip": false,
      "rstrip": false,
      "normalized": false,
      "special": true
    },
    {
      "id": 2,
      "content": "<s>",
      "single_word": false,
      "lstrip": false,
      "rstrip": false,
      "normalized": false,
      "special": true
    },
    {
      "id": 3,
      "content": "</s>",
      "single_word": false,
      "lstrip": false,
      "rstrip": false,
      "normalized": false,
      "special": true
    },
    {
      "id": 4,
      "content": "<mask>",
      "single_word": false,
      "lstrip": false,
      "rstrip": false,
      "normalized": false,
      "special": true
    }
  ],
  "normalizer": null,
  "pre_tokenizer": {
    "type": "Whitespace"
  },
  "post_processor": null,
  "decoder": null,
  "model": {
    "type": "BPE",
    "dropout": null,
    "unk_token": "<unk>",
    "continuing_subword_prefix": null,
    "end_of_word_suffix": null,
    "fuse_unk": false,
    "byte_fallback": false,
    "ignore_merges": false,
    "vocab": {
      "<pad>": 0,
      "<unk>": 1,
      "<s>": 2,
      "</s>": 3,
      "<mask>": 4,
      "\b": 5,
      "\u0010": 6,
      "!": 7,
      "\"": 8,
      "#": 9,
      "$": 10,
      "%": 11,
      "&": 12,
      "'": 13,
      "(": 14,
      ")": 15,
      "*": 16,
      "+": 17,
      ",": 18,
      "-": 19,
      ".": 20,
      "/": 21,
      "0": 22,
      "1": 23,
      "2": 24,
      "3": 25,
      "4": 26,
      "5": 27,
      "6": 28,
      "7": 29,
      "8": 30,
      "9": 31,
      ":": 32,
      ";": 33,
      "<": 34,
      "=": 35,
      ">": 36,
      "?": 37,
      "@": 38,
      "A": 39,
      "B": 40,
      "C": 41,
      "D": 42,
      "E": 43,
      "F": 44,
      "G": 45,
      "H": 46,
      "I": 47,
      "J": 48,
      "K": 49,
      "L": 50,
      "M": 51,
      "N": 52,
      "O": 53,
      "P": 54,
      "Q": 55,
      "R": 56,
      "S": 57,
      "T": 58,
      "U": 59,
      "V": 60,
      "W": 61,
      "X": 62,
      "Y": 63,
      "Z": 64,
      "[": 65,
      "\\": 66,
      "]": 67,
      "^": 68,
      "_": 69,
      "`": 70,
      "a": 71,
      "b": 72,
      "c": 73,
      "d": 74,
      "e": 75,
      "f": 76,
      "g": 77,
      "h": 78,
      "i": 79,
      "j": 80,
      "k": 81,
      "l": 82,
      "m": 83,
      "n": 84,
      "o": 85,
      "p": 86,
      "q": 87,
      "r": 88,
      "s": 89,
      "t": 90,
      "u": 91,
      "v": 92,
      "w": 93,
      "x": 94,
      "y": 95,
      "z": 96,
      "{": 97,
      "|": 98,
      "}": 99,
      "~": 100,
      "": 101,
      "": 102,
      "": 103,
      "": 104,
      "": 105,
      "": 106,
      "": 107,
      "": 108,
      "": 109,
      "": 110,
      "¡": 111,
      "¢": 112,
      "£": 113,
      "¤": 114,
      "¦": 115,
      "§": 116,
      "¨": 117,
      "©": 118,
      "ª": 119,
      "«": 120,
      "­": 121,
      "®": 122,
      "°": 123,
      "³": 124,
      "´": 125,
      "·": 126,
      "º": 127,
      "»": 128,
      "½": 129,
      "¾": 130,
      "¿": 131,
      "À": 132,
      "Á": 133,
      "Â": 134,
      "Ã": 135,
      "Ä": 136,
      "Å": 137,
      "Æ": 138,
      "Ç": 139,
      "È": 140,
      "É": 141,
      "Ê": 142,
      "Ï": 143,
      "Ð": 144,
      "Ó": 145,
      "Õ": 146,
      "Ö": 147,
      "Ø": 148,
      "Ü": 149,
      "Þ": 150,
      "ß": 151,
      "à": 152,
      "á": 153,
      "â": 154,
      "ã": 155,
      "ä": 156,
      "å": 157,
      "æ": 158,
      "ç": 159,
      "è": 160,
      "é": 161,
      "ê": 162,
      "ë": 163,
      "ì": 164,
      "í": 165,
      "î": 166,
      "ï": 167,
      "ð": 168,
      "ñ": 169,
      "ò": 170,
      "ó": 171,
      "ô": 172,
      "õ": 173,
      "ö": 174,
      "ø": 175,
      "ù": 176,
      "ú": 177,
      "û": 178,
      "ü": 179,
      "ý": 180,
      "ğ": 181,
      "ı": 182,
      "ō": 183,
      "Ż": 184,
      "א": 185,
      "ג": 186,
      "ו": 187,
      "י": 188,
      "כ": 189,
      "ל": 190,
      "מ": 191,
      "ן": 192,
      "ר": 193,
      "–": 194,
      "‘": 195,
      "’": 196,
      "“": 197,
      "”": 198,
      "…": 199,
      "″": 200,
      "₤": 201,
      "▼": 202,
      "★": 203,
      "、": 204,
      "": 205,
      "，": 206,
      "th": 207,
      "in": 208,
      "er": 209,
      "an": 210,
      "the": 211,
      "is": 212,
      "re": 213,
      "on": 214,
      "en": 215,
      "at": 216,
      "to": 217,
      "ou": 218,
      "ing": 219,
      "es": 220,
      "al": 221,
      "as": 222,
      "and": 223,
      "or": 224,
      "it": 225,
      "of": 226,
      "ar": 227,
      "ed": 228,
      "il": 229,
      "st": 230,
      "ly": 231,
      "br": 232,
      "he": 233,
      "om": 234,
      "le": 235,
      "se": 236,
      "ch": 237,
      "/>": 238,
      "mo": 239,
      "ac": 240,
      "be": 241,
      "ic": 242,
      "wh": 243,
      "ve": 244,
      "ie": 245,
      "ad": 246,
      "that": 247,
      "ow": 248,
      "ot": 249,
      "ut": 250,
      "ver": 251,
      "ent": 252,
      "this": 253,
      "ion": 254,
      "for": 255,
      "im": 256,
      "ay": 257,
      "ter": 258,
      "gh": 259,
      "li": 260,
      "am": 261,
      "mov": 262,
      "id": 263,
      "was": 264,
      "ith": 265,
      "/><": 266,
      "fil": 267,
      "un": 268,
      "The": 269,
      "film": 270,
      "el": 271,
      "ere": 272,
      "ke": 273,
      "with": 274,
      "oo": 275,
      "ab": 276,
      "ld": 277,
      "his": 278,
      "are": 279,
      "movie": 280,
      "one": 281,
      "ir": 282,
      "ha": 283,
      "out": 284,
      "you": 285,
      "ge": 286,
      "ri": 287,
      "su": 288,
      ".<": 289,
      "ro": 290,
      "sh": 291,
      "pe": 292,
      "all": 293,
      "ce": 294,
      "but": 295,
      "so": 296,
      "ome": 297,
      "ul": 298,
      "pl": 299,
      "de": 300,
      "ally": 301,
      "not": 302,
      "tor": 303,
      "fe": 304,
      "ther": 305,
      "ct": 306,
      "ne": 307,
      "ill": 308,
      "com": 309,
      "tr": 310,
      "sc": 311,
      "ma": 312,
      "ur": 313,
      "..": 314,
      "ould": 315,
      "act": 316,
      "ap": 317,
      "have": 318,
      "ex": 319,
      "man": 320,
      "ght": 321,
      "ust": 322,
      "do": 323,
      "lo": 324,
      "me": 325,
      "us": 326,
      "po": 327,
      "est": 328,
      "di": 329,
      "some": 330,
      "who": 331,
      "end": 332,
      "per": 333,
      "ess": 334,
      "rom": 335,
      "no": 336,
      "very": 337,
      "con": 338,
      "by": 339,
      "ant": 340,
      "ain": 341,
      "thing": 342,
      "nd": 343,
      "her": 344,
      "art": 345,
      "ood": 346,
      "au": 347,
      "ag": 348,
      "ell": 349,
      "wor": 350,
      "see": 351,
      "like": 352,
      "ol": 353,
      "up": 354,
      "ous": 355,
      "ple": 356,
      "It": 357,
      "tim": 358,
      "te": 359,
      "they": 360,
      "from": 361,
      "if": 362,
      "ven": 363,
      "we": 364,
      "ies": 365,
      "pre": 366,
      "qu": 367,
      "ast": 368,
      "ation": 369,
      "ack": 370,
      "get": 371,
      "ate": 372,
      "pro": 373,
      "ough": 374,
      "ist": 375,
      "has": 376,
      "ind": 377,
      "just": 378,
      "ers": 379,
      "char": 380,
      "about": 381,
      "way": 382,
      "other": 383,
      "atch": 384,
      "can": 385,
      "ig": 386,
      "ive": 387,
      "any": 388,
      "go": 389,
      "my": 390,
      "ard": 391,
      "ment": 392,
      "ook": 393,
      "This": 394,
      "acter": 395,
      "good": 396,
      "Th": 397,
      "more": 398,
      "ure": 399,
      "character": 400,
      "tory": 401,
      "der": 402,
      "ine": 403,
      "what": 404,
      "reat": 405,
      "bo": 406,
      "ong": 407,
      "ich": 408,
      "watch": 409,
      "able": 410,
      "now": 411,
      "ss": 412,
      "would": 413,
      "gr": 414,
      "ity": 415,
      "there": 416,
      "ound": 417,
      "time": 418,
      "int": 419,
      "our": 420,
      "ite": 421,
      "ame": 422,
      "ak": 423,
      "um": 424,
      "ck": 425,
      "story": 426,
      "et": 427,
      "ful": 428,
      "pt": 429,
      "ight": 430,
      "sp": 431,
      "most": 432,
      "aw": 433,
      "when": 434,
      "gu": 435,
      "ide": 436,
      "over": 437,
      "she": 438,
      "even": 439,
      "scen": 440,
      "which": 441,
      "own": 442,
      "had": 443,
      "uch": 444,
      "really": 445,
      "only": 446,
      "ble": 447,
      "their": 448,
      "him": 449,
      "ty": 450,
      "Wh": 451,
      "ever": 452,
      "than": 453,
      "bec": 454,
      "were": 455,
      "ink": 456,
      "av": 457,
      "play": 458,
      "its": 459,
      "cl": 460,
      "ious": 461,
      "ear": 462,
      "sel": 463,
      "ade": 464,
      "how": 465,
      "ick": 466,
      "did": 467,
      "bl": 468,
      "ep": 469,
      "show": 470,
      "op": 471,
      "af": 472,
      "does": 473,
      "itt": 474,
      "cr": 475,
      "ore": 476,
      "look": 477,
      "ish": 478,
      "ob": 479,
      "age": 480,
      "ence": 481,
      "ass": 482,
      "ci": 483,
      "them": 484,
      "ort": 485,
      "ause": 486,
      "off": 487,
      "ll": 488,
      "great": 489,
      "bad": 490,
      "...": 491,
      "ice": 492,
      "well": 493,
      "much": 494,
      "bet": 495,
      "know": 496,
      "will": 497,
      "could": 498,
      "been": 499,
      "pr": 500,
      "In": 501,
      "ople": 502,
      "too": 503,
      "ire": 504,
      "ud": 505,
      "irst": 506,
      "dis": 507,
      "thr": 508,
      "into": 509,
      "real": 510,
      "pp": 511,
      "tw": 512,
      "mak": 513,
      "people": 514,
      "part": 515,
      "think": 516,
      "ves": 517,
      "make": 518,
      "ff": 519,
      "dire": 520,
      "wr": 521,
      "fun": 522,
      "because": 523,
      "don": 524,
      "every": 525,
      "ert": 526,
      "son": 527,
      "made": 528,
      "ace": 529,
      "old": 530,
      "first": 531,
      "work": 532,
      "self": 533,
      "vie": 534,
      "And": 535,
      "ser": 536,
      "ny": 537,
      "ile": 538,
      "also": 539,
      "where": 540,
      "inter": 541,
      "nt": 542,
      "du": 543,
      "say": 544,
      "movies": 545,
      "cre": 546,
      "seem": 547,
      "ra": 548,
      "But": 549,
      "ated": 550,
      "ary": 551,
      "spe": 552,
      "jo": 553,
      "fa": 554,
      "ical": 555,
      "low": 556,
      "characters": 557,
      "dr": 558,
      "des": 559,
      "plot": 560,
      "actor": 561,
      "view": 562,
      "ach": 563,
      "ans": 564,
      "Ch": 565,
      "fect": 566,
      "films": 567,
      "less": 568,
      "back": 569,
      "seen": 570,
      "mer": 571,
      "then": 572,
      "ng": 573,
      "fl": 574,
      "He": 575,
      "ance": 576,
      "point": 577,
      "your": 578,
      "acting": 579,
      "want": 580,
      "many": 581,
      "year": 582,
      "ps": 583,
      "min": 584,
      "being": 585,
      "though": 586,
      "love": 587,
      "ving": 588,
      "after": 589,
      "ctor": 590,
      "ces": 591,
      "life": 592,
      "ang": 593,
      "),": 594,
      "co": 595,
      "two": 596,
      "hor": 597,
      "fin": 598,
      "ittle": 599,
      "ict": 600,
      "never": 601,
      "There": 602,
      "iz": 603,
      ").": 604,
      "str": 605,
      "ber": 606,
      "ens": 607,
      "ction": 608,
      "urn": 609,
      "day": 610,
      "through": 611,
      "try": 612,
      "bel": 613,
      "19": 614,
      "best": 615,
      "ose": 616,
      "tal": 617,
      "ually": 618,
      "little": 619,
      "ue": 620,
      "ved": 621,
      "fore": 622,
      "cent": 623,
      "--": 624,
      "ta": 625,
      "here": 626,
      "ily": 627,
      "better": 628,
      "ark": 629,
      "ise": 630,
      "ave": 631,
      "scene": 632,
      "ting": 633,
      "If": 634,
      "!!": 635,
      "kill": 636,
      "augh": 637,
      "mat": 638,
      "fri": 639,
      "gi": 640,
      "ought": 641,
      "ry": 642,
      "ph": 643,
      "ild": 644,
      "find": 645,
      "under": 646,
      "perfor": 647,
      "sur": 648,
      "should": 649,
      "od": 650,
      "ef": 651,
      "igh": 652,
      "won": 653,
      "scenes": 654,
      "feel": 655,
      "ase": 656,
      "ev": 657,
      "ertain": 658,
      "read": 659,
      "10": 660,
      "Al": 661,
      "ree": 662,
      "again": 663,
      "stand": 664,
      "interest": 665,
      "cast": 666,
      "set": 667,
      "che": 668,
      "lot": 669,
      "still": 670,
      "ath": 671,
      "ian": 672,
      "friend": 673,
      "something": 674,
      "gen": 675,
      "ars": 676,
      "cou": 677,
      "happ": 678,
      "such": 679,
      "irl": 680,
      "belie": 681,
      "may": 682,
      "ions": 683,
      "ning": 684,
      "ably": 685,
      "ense": 686,
      "turn": 687,
      "ror": 688,
      "ins": 689,
      "ating": 690,
      "these": 691,
      "em": 692,
      "new": 693,
      "vers": 694,
      "ason": 695,
      "cont": 696,
      "ip": 697,
      "joy": 698,
      "fam": 699,
      "mis": 700,
      "funny": 701,
      "down": 702,
      "imp": 703,
      "performan": 704,
      "scre": 705,
      "actors": 706,
      "az": 707,
      "got": 708,
      "pret": 709,
      "director": 710,
      "St": 711,
      "comm": 712,
      "Jo": 713,
      "sto": 714,
      "att": 715,
      "those": 716,
      "while": 717,
      "ents": 718,
      "wom": 719,
      "doesn": 720,
      "girl": 721,
      "mus": 722,
      "watching": 723,
      "dy": 724,
      "guy": 725,
      "mem": 726,
      "les": 727,
      "didn": 728,
      "tak": 729,
      "inal": 730,
      "ash": 731,
      "pos": 732,
      "years": 733,
      "times": 734,
      "ial": 735,
      "ater": 736,
      "makes": 737,
      "ways": 738,
      "pect": 739,
      "comed": 740,
      "going": 741,
      "enjoy": 742,
      "start": 743,
      "right": 744,
      "ult": 745,
      "ual": 746,
      "Br": 747,
      "bit": 748,
      "produ": 749,
      "long": 750,
      "put": 751,
      "actually": 752,
      "before": 753,
      "big": 754,
      "same": 755,
      "light": 756,
      "As": 757,
      "few": 758,
      "car": 759,
      "red": 760,
      "laugh": 761,
      "action": 762,
      "ool": 763,
      "let": 764,
      "why": 765,
      "hel": 766,
      "diff": 767,
      "ho": 768,
      "tri": 769,
      "orig": 770,
      "rel": 771,
      "sub": 772,
      "thought": 773,
      "young": 774,
      "mon": 775,
      "vi": 776,
      "**": 777,
      "exc": 778,
      "fact": 779,
      "ute": 780,
      "ste": 781,
      "vis": 782,
      "You": 783,
      "comes": 784,
      "nothing": 785,
      "another": 786,
      "appe": 787,
      "ript": 788,
      "comple": 789,
      "screen": 790,
      "high": 791,
      "ings": 792,
      "ren": 793,
      "bu": 794,
      "cle": 795,
      "sa": 796,
      "effect": 797,
      "cept": 798,
      "ress": 799,
      "hu": 800,
      "around": 801,
      "ner": 802,
      "come": 803,
      "aut": 804,
      "quite": 805,
      "arr": 806,
      "How": 807,
      "iting": 808,
      "things": 809,
      "world": 810,
      "seems": 811,
      "pretty": 812,
      "sm": 813,
      "cial": 814,
      "por": 815,
      "inv": 816,
      "hard": 817,
      "fort": 818,
      "mind": 819,
      "person": 820,
      "horror": 821,
      "original": 822,
      "ster": 823,
      "sing": 824,
      "fr": 825,
      "So": 826,
      "need": 827,
      "ten": 828,
      "ince": 829,
      "enough": 830,
      "script": 831,
      "kind": 832,
      "far": 833,
      "meric": 834,
      "Americ": 835,
      "ically": 836,
      "ia": 837,
      "kid": 838,
      "tell": 839,
      "ween": 840,
      "comp": 841,
      "ness": 842,
      "give": 843,
      "main": 844,
      "take": 845,
      "beg": 846,
      "gets": 847,
      "ations": 848,
      "What": 849,
      "wonder": 850,
      "bor": 851,
      "ward": 852,
      "oc": 853,
      "cor": 854,
      "ug": 855,
      "She": 856,
      "used": 857,
      "ately": 858,
      "They": 859,
      "expect": 860,
      "between": 861,
      "vel": 862,
      "must": 863,
      "worth": 864,
      "king": 865,
      "press": 866,
      "interesting": 867,
      "music": 868,
      "ular": 869,
      "saw": 870,
      "sex": 871,
      "done": 872,
      "care": 873,
      "ced": 874,
      "series": 875,
      "cour": 876,
      "lead": 877,
      "war": 878,
      "class": 879,
      "hand": 880,
      "reason": 881,
      "ks": 882,
      "role": 883,
      "vious": 884,
      "call": 885,
      "comedy": 886,
      "grap": 887,
      "cess": 888,
      "\",": 889,
      "expl": 890,
      "child": 891,
      "isn": 892,
      "ending": 893,
      "mom": 894,
      "wood": 895,
      "always": 896,
      "sequ": 897,
      "led": 898,
      "shot": 899,
      "ey": 900,
      "utes": 901,
      "whole": 902,
      "med": 903,
      "least": 904,
      "use": 905,
      "line": 906,
      "unt": 907,
      "sure": 908,
      "ased": 909,
      "sound": 910,
      "both": 911,
      "illi": 912,
      "De": 913,
      "je": 914,
      "hy": 915,
      "cam": 916,
      "beaut": 917,
      "differ": 918,
      "without": 919,
      "tru": 920,
      "head": 921,
      "app": 922,
      "almost": 923,
      "For": 924,
      "might": 925,
      "TV": 926,
      "cine": 927,
      "col": 928,
      "ale": 929,
      "pie": 930,
      "making": 931,
      "os": 932,
      "mot": 933,
      "complete": 934,
      "minutes": 935,
      "book": 936,
      "alo": 937,
      "add": 938,
      "land": 939,
      "rible": 940,
      "00": 941,
      "away": 942,
      "boy": 943,
      "hn": 944,
      "TH": 945,
      "audi": 946,
      "tem": 947,
      "last": 948,
      "bably": 949,
      "An": 950,
      "ible": 951,
      "clo": 952,
      "ouse": 953,
      "anything": 954,
      "dec": 955,
      "run": 956,
      "uring": 957,
      "ature": 958,
      "performance": 959,
      "ines": 960,
      "family": 961,
      "cond": 962,
      "peri": 963,
      "ms": 964,
      "ran": 965,
      "iful": 966,
      "mar": 967,
      "sol": 968,
      "found": 969,
      "fol": 970,
      "entertain": 971,
      "ign": 972,
      "Be": 973,
      "sent": 974,
      "ional": 975,
      "played": 976,
      "\".": 977,
      "ife": 978,
      "sid": 979,
      "ext": 980,
      "lack": 981,
      "woman": 982,
      "No": 983,
      "cially": 984,
      "espe": 985,
      "That": 986,
      "John": 987,
      "val": 988,
      "probably": 989,
      "dram": 990,
      "ked": 991,
      "era": 992,
      "poss": 993,
      "ted": 994,
      "ane": 995,
      "pris": 996,
      "sy": 997,
      "oney": 998,
      "stu": 999,
      "rest": 1000,
      "men": 1001,
      "dialo": 1002,
      "aster": 1003,
      "place": 1004,
      "top": 1005,
      "oot": 1006,
      "mean": 1007,
      "DV": 1008,
      "ER": 1009,
      "pol": 1010,
      "since": 1011,
      "ments": 1012,
      "cap": 1013,
      "sense": 1014,
      "We": 1015,
      "ying": 1016,
      "tit": 1017,
      "rather": 1018,
      "night": 1019,
      "hum": 1020,
      "gl": 1021,
      "DVD": 1022,
      "ative": 1023,
      "na": 1024,
      "each": 1025,
      "iso": 1026,
      "worst": 1027,
      "All": 1028,
      "When": 1029,
      ".\"": 1030,
      "poor": 1031,
      "ft": 1032,
      "course": 1033,
      "body": 1034,
      "different": 1035,
      "looking": 1036,
      "Hol": 1037,
      "My": 1038,
      "happen": 1039,
      "air": 1040,
      "sim": 1041,
      "keep": 1042,
      "believe": 1043,
      "side": 1044,
      "anyone": 1045,
      "cut": 1046,
      "Le": 1047,
      "pict": 1048,
      "trying": 1049,
      "ond": 1050,
      "alf": 1051,
      "beautiful": 1052,
      "istic": 1053,
      "episo": 1054,
      "bre": 1055,
      "commend": 1056,
      "spect": 1057,
      "direct": 1058,
      "help": 1059,
      "Se": 1060,
      "Re": 1061,
      "vo": 1062,
      "ither": 1063,
      "ingly": 1064,
      "bud": 1065,
      "job": 1066,
      "gether": 1067,
      "perfect": 1068,
      "ject": 1069,
      "goes": 1070,
      "member": 1071,
      "yet": 1072,
      "fan": 1073,
      "creat": 1074,
      "plays": 1075,
      "ilar": 1076,
      "shows": 1077,
      "One": 1078,
      "ange": 1079,
      "Mo": 1080,
      "sl": 1081,
      "especially": 1082,
      "together": 1083,
      "ru": 1084,
      "American": 1085,
      "Chr": 1086,
      "fully": 1087,
      "iter": 1088,
      "short": 1089,
      "stead": 1090,
      "sch": 1091,
      "proble": 1092,
      "ics": 1093,
      "ney": 1094,
      "sup": 1095,
      "half": 1096,
      "human": 1097,
      "posed": 1098,
      "ull": 1099,
      "certain": 1100,
      "sit": 1101,
      "watched": 1102,
      "effects": 1103,
      "Un": 1104,
      "looks": 1105,
      "Not": 1106,
      "arent": 1107,
      "Ar": 1108,
      "rele": 1109,
      "wasn": 1110,
      "Mar": 1111,
      "money": 1112,
      "cur": 1113,
      "recommend": 1114,
      "imag": 1115,
      "Ne": 1116,
      "understand": 1117,
      "ons": 1118,
      "ality": 1119,
      "fall": 1120,
      "having": 1121,
      "piece": 1122,
      "follow": 1123,
      "father": 1124,
      "vide": 1125,
      "cover": 1126,
      "bly": 1127,
      "ates": 1128,
      "ism": 1129,
      "fav": 1130,
      "....": 1131,
      "takes": 1132,
      "usu": 1133,
      "ah": 1134,
      "ship": 1135,
      "audience": 1136,
      "rid": 1137,
      "said": 1138,
      "version": 1139,
      "cu": 1140,
      "ts": 1141,
      "ences": 1142,
      "someone": 1143,
      "second": 1144,
      "ellent": 1145,
      "else": 1146,
      "To": 1147,
      "ele": 1148,
      "true": 1149,
      "gue": 1150,
      "word": 1151,
      "io": 1152,
      "tempt": 1153,
      "nice": 1154,
      "special": 1155,
      "tray": 1156,
      "review": 1157,
      "form": 1158,
      "Rob": 1159,
      "hour": 1160,
      "incl": 1161,
      "three": 1162,
      "wife": 1163,
      "ix": 1164,
      "als": 1165,
      "himself": 1166,
      "Ro": 1167,
      "begin": 1168,
      "sty": 1169,
      "anim": 1170,
      "ames": 1171,
      "left": 1172,
      "At": 1173,
      "lywood": 1174,
      "idea": 1175,
      "obvious": 1176,
      "upid": 1177,
      "everything": 1178,
      "invol": 1179,
      "itch": 1180,
      "fight": 1181,
      "came": 1182,
      "kes": 1183,
      "ists": 1184,
      "Some": 1185,
      "rent": 1186,
      "heart": 1187,
      "Ste": 1188,
      "mur": 1189,
      "star": 1190,
      "entire": 1191,
      "later": 1192,
      "ross": 1193,
      "seeing": 1194,
      "imply": 1195,
      "On": 1196,
      "gy": 1197,
      "ones": 1198,
      "ited": 1199,
      "ired": 1200,
      "house": 1201,
      "par": 1202,
      "excellent": 1203,
      "ling": 1204,
      "budget": 1205,
      "den": 1206,
      "Don": 1207,
      "during": 1208,
      "once": 1209,
      "ition": 1210,
      "miss": 1211,
      "reg": 1212,
      "everyone": 1213,
      "stupid": 1214,
      "Car": 1215,
      "cing": 1216,
      "cop": 1217,
      "ends": 1218,
      "super": 1219,
      "appoint": 1220,
      "loc": 1221,
      "0s": 1222,
      "However": 1223,
      "production": 1224,
      "partic": 1225,
      "using": 1226,
      "ref": 1227,
      "hero": 1228,
      "face": 1229,
      "attempt": 1230,
      "conv": 1231,
      "open": 1232,
      "pow": 1233,
      "IN": 1234,
      "ery": 1235,
      "death": 1236,
      "completely": 1237,
      "gener": 1238,
      "suc": 1239,
      "serious": 1240,
      "Well": 1241,
      "home": 1242,
      "uck": 1243,
      "friends": 1244,
      "portray": 1245,
      "others": 1246,
      "eng": 1247,
      "clear": 1248,
      "disappoint": 1249,
      "defin": 1250,
      "remember": 1251,
      "Pe": 1252,
      "solute": 1253,
      "simply": 1254,
      "pass": 1255,
      "cy": 1256,
      "fortun": 1257,
      "ese": 1258,
      "sort": 1259,
      "ared": 1260,
      "ries": 1261,
      "Hollywood": 1262,
      "ird": 1263,
      "school": 1264,
      "ake": 1265,
      "ier": 1266,
      "along": 1267,
      "eas": 1268,
      "ident": 1269,
      "wrong": 1270,
      "song": 1271,
      "omb": 1272,
      "given": 1273,
      "ned": 1274,
      "Bo": 1275,
      "ters": 1276,
      "cho": 1277,
      "tra": 1278,
      "mess": 1279,
      "ures": 1280,
      "sider": 1281,
      "camera": 1282,
      "graphy": 1283,
      "emot": 1284,
      "Af": 1285,
      "amp": 1286,
      "cer": 1287,
      "boring": 1288,
      "black": 1289,
      "xt": 1290,
      "mother": 1291,
      "supposed": 1292,
      "que": 1293,
      "either": 1294,
      "fair": 1295,
      "ley": 1296,
      "kids": 1297,
      "pain": 1298,
      "sk": 1299,
      "Gr": 1300,
      "performances": 1301,
      "fail": 1302,
      "near": 1303,
      "Sh": 1304,
      "dri": 1305,
      "absolute": 1306,
      "itten": 1307,
      "coun": 1308,
      "AN": 1309,
      "name": 1310,
      "small": 1311,
      "band": 1312,
      "surpris": 1313,
      "particular": 1314,
      "fel": 1315,
      "classic": 1316,
      "num": 1317,
      "couple": 1318,
      "lig": 1319,
      "except": 1320,
      "exam": 1321,
      "women": 1322,
      "stre": 1323,
      "Mr": 1324,
      "ready": 1325,
      "awful": 1326,
      "ory": 1327,
      "until": 1328,
      "favor": 1329,
      "flick": 1330,
      "haps": 1331,
      "getting": 1332,
      "live": 1333,
      "wa": 1334,
      "full": 1335,
      "humor": 1336,
      "ton": 1337,
      "nor": 1338,
      "viol": 1339,
      "allow": 1340,
      "ger": 1341,
      "ime": 1342,
      "itely": 1343,
      "tow": 1344,
      "Cl": 1345,
      "truly": 1346,
      "dead": 1347,
      "video": 1348,
      "feature": 1349,
      "ote": 1350,
      "velo": 1351,
      "lines": 1352,
      "sul": 1353,
      "playing": 1354,
      "moments": 1355,
      "sil": 1356,
      "present": 1357,
      "ities": 1358,
      "pu": 1359,
      "After": 1360,
      "experi": 1361,
      "sci": 1362,
      "bed": 1363,
      "itself": 1364,
      "consider": 1365,
      "iv": 1366,
      "power": 1367,
      "THE": 1368,
      "case": 1369,
      "instead": 1370,
      "amaz": 1371,
      "murder": 1372,
      "iness": 1373,
      "pa": 1374,
      "quest": 1375,
      "ides": 1376,
      "talent": 1377,
      "tern": 1378,
      "sever": 1379,
      "includ": 1380,
      "slow": 1381,
      "lish": 1382,
      "style": 1383,
      "Jack": 1384,
      "drama": 1385,
      "ize": 1386,
      "doing": 1387,
      "dist": 1388,
      "develo": 1389,
      "next": 1390,
      "Even": 1391,
      "ors": 1392,
      "mention": 1393,
      "ility": 1394,
      "sad": 1395,
      "ank": 1396,
      "male": 1397,
      "wal": 1398,
      "terrible": 1399,
      "ming": 1400,
      "ike": 1401,
      "however": 1402,
      "gives": 1403,
      "Man": 1404,
      "liked": 1405,
      "often": 1406,
      "aring": 1407,
      "Do": 1408,
      "written": 1409,
      "went": 1410,
      "although": 1411,
      "guess": 1412,
      "maybe": 1413,
      "episode": 1414,
      "unch": 1415,
      "His": 1416,
      "loved": 1417,
      "early": 1418,
      "non": 1419,
      "aged": 1420,
      "adv": 1421,
      "wonderful": 1422,
      "dialogue": 1423,
      "impress": 1424,
      "Sp": 1425,
      "bas": 1426,
      "coming": 1427,
      "hope": 1428,
      "ont": 1429,
      "stars": 1430,
      "room": 1431,
      "meet": 1432,
      "conf": 1433,
      "cinemat": 1434,
      "Dav": 1435,
      "felt": 1436,
      "couldn": 1437,
      "credi": 1438,
      "strong": 1439,
      "track": 1440,
      "teen": 1441,
      ",\"": 1442,
      "ages": 1443,
      "ys": 1444,
      "ains": 1445,
      "ler": 1446,
      "brilli": 1447,
      "gn": 1448,
      "Lo": 1449,
      "ST": 1450,
      "ended": 1451,
      "become": 1452,
      "supp": 1453,
      "called": 1454,
      "town": 1455,
      "cli": 1456,
      "ention": 1457,
      "mor": 1458,
      "gest": 1459,
      "tic": 1460,
      "turns": 1461,
      "With": 1462,
      "fant": 1463,
      "entertaining": 1464,
      "actress": 1465,
      "known": 1466,
      "children": 1467,
      "Ed": 1468,
      "ni": 1469,
      "ground": 1470,
      "Bl": 1471,
      "mid": 1472,
      "lear": 1473,
      "master": 1474,
      "fre": 1475,
      "Christ": 1476,
      "wish": 1477,
      "reme": 1478,
      "dark": 1479,
      "title": 1480,
      "ca": 1481,
      "spir": 1482,
      "relation": 1483,
      "develop": 1484,
      "ulous": 1485,
      "dou": 1486,
      "deli": 1487,
      "cred": 1488,
      "break": 1489,
      "spo": 1490,
      "possible": 1491,
      "sat": 1492,
      "mark": 1493,
      "Je": 1494,
      "thrill": 1495,
      "absolutely": 1496,
      "worse": 1497,
      "sho": 1498,
      "ael": 1499,
      "Char": 1500,
      "ax": 1501,
      "list": 1502,
      "guys": 1503,
      "ord": 1504,
      "ues": 1505,
      "beginning": 1506,
      "direction": 1507,
      "Tr": 1508,
      "ony": 1509,
      "mentary": 1510,
      "New": 1511,
      "definitely": 1512,
      "certainly": 1513,
      "waste": 1514,
      "Fran": 1515,
      "selves": 1516,
      "extreme": 1517,
      "problem": 1518,
      "success": 1519,
      "against": 1520,
      "vable": 1521,
      "Con": 1522,
      "wanted": 1523,
      "close": 1524,
      "picture": 1525,
      "fortunately": 1526,
      "cinema": 1527,
      "antly": 1528,
      "Then": 1529,
      "Eng": 1530,
      "RE": 1531,
      "win": 1532,
      "ret": 1533,
      "leg": 1534,
      "pri": 1535,
      "ude": 1536,
      "ief": 1537,
      "ized": 1538,
      "pite": 1539,
      "ied": 1540,
      "seemed": 1541,
      "Of": 1542,
      "Mich": 1543,
      "rif": 1544,
      "blood": 1545,
      "evil": 1546,
      "tot": 1547,
      "susp": 1548,
      "ub": 1549,
      "uni": 1550,
      "While": 1551,
      "deal": 1552,
      "appear": 1553,
      "log": 1554,
      "several": 1555,
      "Also": 1556,
      "fine": 1557,
      "dict": 1558,
      "game": 1559,
      "works": 1560,
      "Dr": 1561,
      "genre": 1562,
      "already": 1563,
      "ball": 1564,
      "becomes": 1565,
      "quality": 1566,
      "based": 1567,
      "vision": 1568,
      "example": 1569,
      "pop": 1570,
      "nam": 1571,
      "totally": 1572,
      "Now": 1573,
      "Michael": 1574,
      "ON": 1575,
      "ific": 1576,
      "pur": 1577,
      "lives": 1578,
      "Why": 1579,
      "ided": 1580,
      "psy": 1581,
      "fans": 1582,
      "deser": 1583,
      "dre": 1584,
      "und": 1585,
      "Mc": 1586,
      "cas": 1587,
      "past": 1588,
      "Just": 1589,
      "cult": 1590,
      "daugh": 1591,
      "port": 1592,
      "grou": 1593,
      "stuff": 1594,
      "support": 1595,
      "writing": 1596,
      "200": 1597,
      "Sc": 1598,
      "ino": 1599,
      "writer": 1600,
      "capt": 1601,
      "Her": 1602,
      "uses": 1603,
      "key": 1604,
      "bar": 1605,
      "hind": 1606,
      "ister": 1607,
      "days": 1608,
      "atic": 1609,
      "Robert": 1610,
      "import": 1611,
      "Dan": 1612,
      "hold": 1613,
      "touch": 1614,
      "lost": 1615,
      "wants": 1616,
      "foot": 1617,
      "uss": 1618,
      "Ger": 1619,
      "ago": 1620,
      "unk": 1621,
      "!<": 1622,
      "matter": 1623,
      "atur": 1624,
      "vill": 1625,
      "Ge": 1626,
      "ount": 1627,
      "viewer": 1628,
      ").<": 1629,
      "??": 1630,
      "parts": 1631,
      "hon": 1632,
      "crit": 1633,
      "May": 1634,
      "vic": 1635,
      "anno": 1636,
      "docu": 1637,
      "ali": 1638,
      "colle": 1639,
      "etc": 1640,
      "throughout": 1641,
      "ams": 1642,
      "NO": 1643,
      "aving": 1644,
      "orge": 1645,
      "Is": 1646,
      "dep": 1647,
      "aim": 1648,
      "level": 1649,
      "Every": 1650,
      "fac": 1651,
      "late": 1652,
      "history": 1653,
      "score": 1654,
      "type": 1655,
      "situ": 1656,
      "wise": 1657,
      "tries": 1658,
      "adm": 1659,
      "anger": 1660,
      "arch": 1661,
      "typ": 1662,
      "antic": 1663,
      "hilar": 1664,
      "gave": 1665,
      "Ri": 1666,
      "usual": 1667,
      "jor": 1668,
      "enjoyed": 1669,
      "final": 1670,
      "fig": 1671,
      "killed": 1672,
      "ried": 1673,
      "prom": 1674,
      "die": 1675,
      "lock": 1676,
      "War": 1677,
      "contin": 1678,
      "finally": 1679,
      "amazing": 1680,
      "intel": 1681,
      "novel": 1682,
      "today": 1683,
      "pick": 1684,
      "Lu": 1685,
      "sum": 1686,
      "favorite": 1687,
      "Co": 1688,
      "themselves": 1689,
      "killer": 1690,
      "horrible": 1691,
      "ung": 1692,
      "stay": 1693,
      "myster": 1694,
      "decent": 1695,
      "behind": 1696,
      "group": 1697,
      "ket": 1698,
      "moment": 1699,
      "ding": 1700,
      "looked": 1701,
      "AL": 1702,
      "starts": 1703,
      "eyes": 1704,
      "daughter": 1705,
      "ek": 1706,
      "prof": 1707,
      "exact": 1708,
      "speak": 1709,
      "myself": 1710,
      "shoot": 1711,
      "believable": 1712,
      "compl": 1713,
      "trans": 1714,
      "thinking": 1715,
      "chang": 1716,
      "stud": 1717,
      "heard": 1718,
      "bing": 1719,
      "ail": 1720,
      "aves": 1721,
      "God": 1722,
      "perhaps": 1723,
      "predict": 1724,
      "stop": 1725,
      "brilliant": 1726,
      "bus": 1727,
      "Any": 1728,
      "says": 1729,
      "took": 1730,
      "ridic": 1731,
      "white": 1732,
      "Har": 1733,
      "Bar": 1734,
      "ered": 1735,
      "Pa": 1736,
      "effort": 1737,
      "girls": 1738,
      "AT": 1739,
      "directed": 1740,
      "count": 1741,
      "voice": 1742,
      "experience": 1743,
      "aren": 1744,
      "ination": 1745,
      "mas": 1746,
      "hilarious": 1747,
      "ography": 1748,
      "order": 1749,
      "happens": 1750,
      "appro": 1751,
      "bers": 1752,
      "move": 1753,
      "desc": 1754,
      "Brit": 1755,
      "lan": 1756,
      "mag": 1757,
      "feeling": 1758,
      "soon": 1759,
      "incredi": 1760,
      "tail": 1761,
      "tech": 1762,
      "Ad": 1763,
      "ott": 1764,
      "told": 1765,
      "pose": 1766,
      "gun": 1767,
      "cool": 1768,
      "usband": 1769,
      "tele": 1770,
      "hop": 1771,
      "sle": 1772,
      "gar": 1773,
      "ering": 1774,
      "David": 1775,
      "apt": 1776,
      "involved": 1777,
      "ump": 1778,
      "Or": 1779,
      "taking": 1780,
      "dle": 1781,
      "var": 1782,
      "ured": 1783,
      "Per": 1784,
      "Me": 1785,
      "pay": 1786,
      "major": 1787,
      "tract": 1788,
      "lar": 1789,
      "turned": 1790,
      "ris": 1791,
      "hit": 1792,
      "ator": 1793,
      "ained": 1794,
      "ridiculous": 1795,
      ".)": 1796,
      "convin": 1797,
      "rating": 1798,
      "stories": 1799,
      "weak": 1800,
      "husband": 1801,
      "shock": 1802,
      "graph": 1803,
      "ene": 1804,
      "event": 1805,
      "astic": 1806,
      "umb": 1807,
      "opin": 1808,
      "roles": 1809,
      "ards": 1810,
      "cheap": 1811,
      "bring": 1812,
      "James": 1813,
      "Oh": 1814,
      "polit": 1815,
      "swe": 1816,
      "cannot": 1817,
      "ann": 1818,
      "rench": 1819,
      "memor": 1820,
      "crap": 1821,
      "makers": 1822,
      "ats": 1823,
      "change": 1824,
      "extremely": 1825,
      "chance": 1826,
      "including": 1827,
      "sym": 1828,
      "similar": 1829,
      "iss": 1830,
      "recent": 1831,
      "police": 1832,
      "20": 1833,
      "Tom": 1834,
      "resul": 1835,
      "inst": 1836,
      "violence": 1837,
      "ances": 1838,
      "realistic": 1839,
      "US": 1840,
      "leave": 1841,
      "els": 1842,
      "English": 1843,
      "quick": 1844,
      "sw": 1845,
      "OK": 1846,
      "shown": 1847,
      "urt": 1848,
      "wouldn": 1849,
      "expected": 1850,
      "roll": 1851,
      "particularly": 1852,
      "happened": 1853,
      "IL": 1854,
      "plan": 1855,
      "taken": 1856,
      "musical": 1857,
      "wit": 1858,
      "scar": 1859,
      "doub": 1860,
      "oto": 1861,
      "obviously": 1862,
      "ows": 1863,
      "simple": 1864,
      "vil": 1865,
      "pet": 1866,
      "itive": 1867,
      "vir": 1868,
      "country": 1869,
      "dies": 1870,
      "lad": 1871,
      "wards": 1872,
      "foc": 1873,
      "ational": 1874,
      "apparent": 1875,
      "subject": 1876,
      "Com": 1877,
      "ok": 1878,
      "jokes": 1879,
      "released": 1880,
      "brother": 1881,
      "First": 1882,
      "aris": 1883,
      "rated": 1884,
      "pleas": 1885,
      "forget": 1886,
      "annoying": 1887,
      "197": 1888,
      "Col": 1889,
      "moder": 1890,
      "reality": 1891,
      "sor": 1892,
      "career": 1893,
      "four": 1894,
      "across": 1895,
      "build": 1896,
      "enn": 1897,
      "opening": 1898,
      "mal": 1899,
      "odd": 1900,
      "ib": 1901,
      "Wor": 1902,
      "Although": 1903,
      "suspense": 1904,
      "iety": 1905,
      "IM": 1906,
      "alone": 1907,
      "highly": 1908,
      "ky": 1909,
      "AR": 1910,
      "deep": 1911,
      "ather": 1912,
      "ential": 1913,
      "dog": 1914,
      "relationship": 1915,
      "itting": 1916,
      "photo": 1917,
      "sometimes": 1918,
      "hot": 1919,
      "shots": 1920,
      "!!!": 1921,
      "clich": 1922,
      "words": 1923,
      "198": 1924,
      "dialog": 1925,
      "ina": 1926,
      "ield": 1927,
      "huge": 1928,
      "...<": 1929,
      "saying": 1930,
      "gore": 1931,
      "fut": 1932,
      "suff": 1933,
      "draw": 1934,
      "exactly": 1935,
      "ury": 1936,
      "hours": 1937,
      "documentary": 1938,
      "none": 1939,
      "ently": 1940,
      "important": 1941,
      "yourself": 1942,
      "respect": 1943,
      "whose": 1944,
      "Mor": 1945,
      "strange": 1946,
      "cause": 1947,
      "ric": 1948,
      "parent": 1949,
      "OR": 1950,
      "number": 1951,
      "rew": 1952,
      "fer": 1953,
      "ives": 1954,
      "Su": 1955,
      "started": 1956,
      "save": 1957,
      "Over": 1958,
      "opinion": 1959,
      "cost": 1960,
      "usually": 1961,
      "treat": 1962,
      "happy": 1963,
      "cinematography": 1964,
      "living": 1965,
      "mist": 1966,
      "check": 1967,
      "chard": 1968,
      "box": 1969,
      "Nor": 1970,
      "comment": 1971,
      "ili": 1972,
      "stra": 1973,
      "pot": 1974,
      "Willi": 1975,
      "enty": 1976,
      "Paul": 1977,
      "rodu": 1978,
      "narr": 1979,
      "honest": 1980,
      "Wal": 1981,
      "plac": 1982,
      "appears": 1983,
      "whe": 1984,
      "discover": 1985,
      "female": 1986,
      "running": 1987,
      "Pr": 1988,
      "modern": 1989,
      "fire": 1990,
      "outh": 1991,
      "exist": 1992,
      "learn": 1993,
      "ished": 1994,
      "ask": 1995,
      "despite": 1996,
      "sequence": 1997,
      "appre": 1998,
      "hell": 1999,
      "somewhat": 2000,
      "drug": 2001,
      "estern": 2002,
      "stick": 2003,
      "****": 2004,
      "sign": 2005,
      "disappointed": 2006,
      "abo": 2007,
      "detail": 2008,
      "straight": 2009,
      "predictable": 2010,
      "lect": 2011,
      "local": 2012,
      "acc": 2013,
      "finds": 2014,
      "knew": 2015,
      "pped": 2016,
      "wer": 2017,
      "thetic": 2018,
      "attention": 2019,
      "Richard": 2020,
      "knows": 2021,
      "lies": 2022,
      "silly": 2023,
      "ING": 2024,
      "talk": 2025,
      "sets": 2026,
      "la": 2027,
      "single": 2028,
      "talking": 2029,
      "mil": 2030,
      "apan": 2031,
      "sold": 2032,
      "natur": 2033,
      "aver": 2034,
      "ants": 2035,
      "199": 2036,
      "EN": 2037,
      "ined": 2038,
      "pres": 2039,
      "giving": 2040,
      "dest": 2041,
      "erial": 2042,
      "problems": 2043,
      "thor": 2044,
      "bal": 2045,
      "among": 2046,
      "famous": 2047,
      "remind": 2048,
      "!\"": 2049,
      "bey": 2050,
      "team": 2051,
      "suck": 2052,
      "gang": 2053,
      "mostly": 2054,
      "Cr": 2055,
      "prem": 2056,
      "middle": 2057,
      "ik": 2058,
      "IS": 2059,
      "due": 2060,
      "aby": 2061,
      "oid": 2062,
      "cru": 2063,
      "atmo": 2064,
      "gan": 2065,
      "agon": 2066,
      "episodes": 2067,
      "azy": 2068,
      "utter": 2069,
      "oud": 2070,
      "Japan": 2071,
      "prov": 2072,
      "appreci": 2073,
      "equ": 2074,
      "yes": 2075,
      "front": 2076,
      "Bro": 2077,
      "oul": 2078,
      "ral": 2079,
      "shi": 2080,
      "fast": 2081,
      "writ": 2082,
      "intellig": 2083,
      "ital": 2084,
      "atmosp": 2085,
      "eye": 2086,
      "British": 2087,
      "necess": 2088,
      "Can": 2089,
      "question": 2090,
      "cliché": 2091,
      "inc": 2092,
      "sequences": 2093,
      "iet": 2094,
      "eless": 2095,
      "ged": 2096,
      "events": 2097,
      "vol": 2098,
      "atter": 2099,
      "tells": 2100,
      "II": 2101,
      "moving": 2102,
      "ability": 2103,
      "scary": 2104,
      "television": 2105,
      "hol": 2106,
      "Go": 2107,
      "Dis": 2108,
      "prise": 2109,
      "ised": 2110,
      "Sam": 2111,
      "usion": 2112,
      "Ben": 2113,
      "Yes": 2114,
      "romantic": 2115,
      "George": 2116,
      "mix": 2117,
      "law": 2118,
      "sexual": 2119,
      "From": 2120,
      "hate": 2121,
      "soundtrack": 2122,
      "free": 2123,
      "thriller": 2124,
      "Maybe": 2125,
      "Gu": 2126,
      "ork": 2127,
      "upon": 2128,
      "previous": 2129,
      "stru": 2130,
      "Po": 2131,
      "falls": 2132,
      "otic": 2133,
      "cret": 2134,
      "Sha": 2135,
      "ceed": 2136,
      "kept": 2137,
      "rip": 2138,
      "seriously": 2139,
      "season": 2140,
      "El": 2141,
      "acy": 2142,
      "enjoyable": 2143,
      "search": 2144,
      "Who": 2145,
      "comic": 2146,
      "Pl": 2147,
      "dull": 2148,
      "songs": 2149,
      "Chris": 2150,
      "ots": 2151,
      "apart": 2152,
      "pat": 2153,
      "agree": 2154,
      "material": 2155,
      "By": 2156,
      "spoil": 2157,
      "res": 2158,
      "arely": 2159,
      "named": 2160,
      "issu": 2161,
      "diffic": 2162,
      "haven": 2163,
      "aught": 2164,
      "lie": 2165,
      "twist": 2166,
      "aspect": 2167,
      "setting": 2168,
      "Unfortunately": 2169,
      "beyond": 2170,
      "working": 2171,
      "carto": 2172,
      "Ph": 2173,
      "stage": 2174,
      "post": 2175,
      "Ex": 2176,
      "dro": 2177,
      "doubt": 2178,
      "attle": 2179,
      "accept": 2180,
      "dan": 2181,
      "Frank": 2182,
      "del": 2183,
      "easy": 2184,
      "release": 2185,
      "visual": 2186,
      "sequel": 2187,
      "message": 2188,
      "clearly": 2189,
      "above": 2190,
      "ibly": 2191,
      "easily": 2192,
      "publ": 2193,
      "fell": 2194,
      "victim": 2195,
      "future": 2196,
      "flaw": 2197,
      "Indi": 2198,
      "soc": 2199,
      "Fil": 2200,
      "surprised": 2201,
      "personal": 2202,
      "tried": 2203,
      "needs": 2204,
      "Mon": 2205,
      "sn": 2206,
      "zomb": 2207,
      "theat": 2208,
      "claim": 2209,
      "sug": 2210,
      "slight": 2211,
      "creep": 2212,
      "ension": 2213,
      "entertainment": 2214,
      "parents": 2215,
      "French": 2216,
      "acted": 2217,
      "Peter": 2218,
      "adult": 2219,
      "lim": 2220,
      "trou": 2221,
      "const": 2222,
      "rend": 2223,
      "state": 2224,
      "ban": 2225,
      "rich": 2226,
      "telling": 2227,
      "showing": 2228,
      "tom": 2229,
      "points": 2230,
      "har": 2231,
      "Most": 2232,
      "bunch": 2233,
      "asy": 2234,
      "50": 2235,
      "theme": 2236,
      "resp": 2237,
      "tle": 2238,
      "period": 2239,
      "viewing": 2240,
      "city": 2241,
      "match": 2242,
      "reve": 2243,
      "round": 2244,
      "storyline": 2245,
      "dam": 2246,
      "forward": 2247,
      "suggest": 2248,
      "large": 2249,
      "ening": 2250,
      "deed": 2251,
      "inno": 2252,
      "sem": 2253,
      "uro": 2254,
      "actual": 2255,
      "attack": 2256,
      "ctive": 2257,
      "Like": 2258,
      "?<": 2259,
      "pathetic": 2260,
      "minute": 2261,
      "meaning": 2262,
      "filmed": 2263,
      "pping": 2264,
      "hear": 2265,
      "!!!!": 2266,
      "Dire": 2267,
      "contro": 2268,
      "supporting": 2269,
      "oose": 2270,
      "repe": 2271,
      "ution": 2272,
      "30": 2273,
      "typical": 2274,
      "path": 2275,
      "',": 2276,
      "means": 2277,
      "Ber": 2278,
      "water": 2279,
      "within": 2280,
      "feels": 2281,
      "flu": 2282,
      "comments": 2283,
      "clim": 2284,
      "ially": 2285,
      "rock": 2286,
      "herself": 2287,
      "omin": 2288,
      "decided": 2289,
      "elements": 2290,
      "Jim": 2291,
      "tale": 2292,
      "dramatic": 2293,
      "difficult": 2294,
      "sister": 2295,
      "yp": 2296,
      "overall": 2297,
      "Ke": 2298,
      "!)": 2299,
      "kick": 2300,
      "teach": 2301,
      "Oscar": 2302,
      "hom": 2303,
      "ses": 2304,
      "viewers": 2305,
      "lin": 2306,
      "owing": 2307,
      "Qu": 2308,
      "five": 2309,
      "truth": 2310,
      "editing": 2311,
      "rob": 2312,
      "div": 2313,
      "Good": 2314,
      "Ho": 2315,
      "iment": 2316,
      "comb": 2317,
      "introdu": 2318,
      "net": 2319,
      "flash": 2320,
      "York": 2321,
      "kills": 2322,
      "buy": 2323,
      "LE": 2324,
      "sha": 2325,
      "hood": 2326,
      "rate": 2327,
      "Watch": 2328,
      "nearly": 2329,
      "mill": 2330,
      "ians": 2331,
      "board": 2332,
      "descri": 2333,
      "wind": 2334,
      "brought": 2335,
      "Its": 2336,
      "ampire": 2337,
      "figure": 2338,
      "express": 2339,
      "street": 2340,
      "Sch": 2341,
      "camp": 2342,
      "whether": 2343,
      "reviews": 2344,
      "Ital": 2345,
      "leads": 2346,
      "fi": 2347,
      "business": 2348,
      "Des": 2349,
      "asc": 2350,
      "rad": 2351,
      "accent": 2352,
      "America": 2353,
      "writers": 2354,
      "Ang": 2355,
      "ze": 2356,
      "ener": 2357,
      "van": 2358,
      "wo": 2359,
      "dream": 2360,
      "mel": 2361,
      "esy": 2362,
      "catch": 2363,
      "wait": 2364,
      "background": 2365,
      "jud": 2366,
      "ugh": 2367,
      "theater": 2368,
      "lier": 2369,
      "greatest": 2370,
      "cons": 2371,
      "begins": 2372,
      "refer": 2373,
      "basically": 2374,
      "King": 2375,
      "train": 2376,
      "crime": 2377,
      "conne": 2378,
      "iction": 2379,
      "gone": 2380,
      "premise": 2381,
      "ls": 2382,
      "atmosphere": 2383,
      "atever": 2384,
      "VER": 2385,
      "ron": 2386,
      "NOT": 2387,
      "forced": 2388,
      "German": 2389,
      "lots": 2390,
      "crew": 2391,
      "nature": 2392,
      "thy": 2393,
      "fantastic": 2394,
      "convincing": 2395,
      "apparently": 2396,
      "average": 2397,
      "advent": 2398,
      "surprise": 2399,
      "animation": 2400,
      "Aust": 2401,
      "Mart": 2402,
      "Overall": 2403,
      "medi": 2404,
      "liter": 2405,
      "prison": 2406,
      "PO": 2407,
      "natural": 2408,
      "amount": 2409,
      "These": 2410,
      "grand": 2411,
      "write": 2412,
      "situation": 2413,
      "unity": 2414,
      "rific": 2415,
      "emotional": 2416,
      "step": 2417,
      "killing": 2418,
      "Night": 2419,
      "weird": 2420,
      "80": 2421,
      "bother": 2422,
      "vent": 2423,
      "needed": 2424,
      "deliver": 2425,
      "IMD": 2426,
      "dden": 2427,
      "fit": 2428,
      "pure": 2429,
      "ye": 2430,
      "appeal": 2431,
      "Lee": 2432,
      "rap": 2433,
      "dem": 2434,
      "ugg": 2435,
      "Let": 2436,
      "stere": 2437,
      "interested": 2438,
      "clever": 2439,
      "Black": 2440,
      "zz": 2441,
      "monster": 2442,
      "?\"": 2443,
      "ring": 2444,
      "depict": 2445,
      "LO": 2446,
      "standing": 2447,
      "ham": 2448,
      "exe": 2449,
      "memorable": 2450,
      "public": 2451,
      "effective": 2452,
      "poorly": 2453,
      "pull": 2454,
      "week": 2455,
      "space": 2456,
      "reco": 2457,
      "profess": 2458,
      "leaves": 2459,
      "lame": 2460,
      "rac": 2461,
      "ously": 2462,
      "gay": 2463,
      "sick": 2464,
      "lying": 2465,
      "secret": 2466,
      "urther": 2467,
      "heav": 2468,
      "ultim": 2469,
      "became": 2470,
      "footage": 2471,
      "ilo": 2472,
      "field": 2473,
      "concept": 2474,
      "leading": 2475,
      "credits": 2476,
      "Here": 2477,
      "crim": 2478,
      "serv": 2479,
      "emb": 2480,
      "Star": 2481,
      "Am": 2482,
      "oper": 2483,
      "sudden": 2484,
      "ager": 2485,
      "bored": 2486,
      "pac": 2487,
      "Em": 2488,
      "dance": 2489,
      "aging": 2490,
      "mentioned": 2491,
      "ges": 2492,
      "mad": 2493,
      "/>\"": 2494,
      "note": 2495,
      "mach": 2496,
      "copy": 2497,
      "cted": 2498,
      "worked": 2499,
      "possibly": 2500,
      "tori": 2501,
      "Ser": 2502,
      "reading": 2503,
      "ana": 2504,
      "anyway": 2505,
      "gre": 2506,
      "'.": 2507,
      "society": 2508,
      "OU": 2509,
      "Other": 2510,
      "beat": 2511,
      "bul": 2512,
      "hair": 2513,
      "gotten": 2514,
      "shame": 2515,
      "inally": 2516,
      "emotion": 2517,
      "unique": 2518,
      "villain": 2519,
      "sens": 2520,
      "somehow": 2521,
      "meets": 2522,
      "ula": 2523,
      "mystery": 2524,
      "oun": 2525,
      "unlike": 2526,
      "studi": 2527,
      "Disney": 2528,
      "recogn": 2529,
      "perfectly": 2530,
      "stereot": 2531,
      "yn": 2532,
      "laughs": 2533,
      "hi": 2534,
      "boys": 2535,
      "whom": 2536,
      "features": 2537,
      "popular": 2538,
      "result": 2539,
      "ald": 2540,
      "cers": 2541,
      "Wood": 2542,
      "met": 2543,
      "cheesy": 2544,
      "ising": 2545,
      "Ear": 2546,
      "romance": 2547,
      "keeps": 2548,
      "roy": 2549,
      "Japanese": 2550,
      "ica": 2551,
      "third": 2552,
      "attract": 2553,
      "iliar": 2554,
      "apped": 2555,
      "meant": 2556,
      "quickly": 2557,
      "masterpiece": 2558,
      "ices": 2559,
      "Great": 2560,
      "196": 2561,
      "Che": 2562,
      "imagine": 2563,
      "superb": 2564,
      "Scott": 2565,
      "please": 2566,
      "bur": 2567,
      "akes": 2568,
      "hands": 2569,
      "distur": 2570,
      "aked": 2571,
      "Euro": 2572,
      "Will": 2573,
      "anti": 2574,
      "familiar": 2575,
      "general": 2576,
      "ches": 2577,
      "badly": 2578,
      "older": 2579,
      "scient": 2580,
      "realize": 2581,
      "IT": 2582,
      "girlfriend": 2583,
      "total": 2584,
      "satis": 2585,
      "Cor": 2586,
      "dumb": 2587,
      "reach": 2588,
      "edu": 2589,
      "Joe": 2590,
      "members": 2591,
      "ped": 2592,
      "earlier": 2593,
      "create": 2594,
      "screenplay": 2595,
      "Gre": 2596,
      "Ale": 2597,
      "demon": 2598,
      "trad": 2599,
      "trave": 2600,
      "ient": 2601,
      "aste": 2602,
      "concl": 2603,
      "joke": 2604,
      "Pat": 2605,
      "fest": 2606,
      "fasc": 2607,
      "trash": 2608,
      "sorry": 2609,
      "exper": 2610,
      "fairly": 2611,
      "William": 2612,
      "ging": 2613,
      "powerful": 2614,
      "IMDb": 2615,
      "bro": 2616,
      "dress": 2617,
      "cat": 2618,
      "jour": 2619,
      "?)": 2620,
      "imm": 2621,
      "adapt": 2622,
      "plain": 2623,
      "illy": 2624,
      "brings": 2625,
      "various": 2626,
      "histor": 2627,
      "flo": 2628,
      "doctor": 2629,
      "battle": 2630,
      "towards": 2631,
      "incredibly": 2632,
      "Fo": 2633,
      "admit": 2634,
      "lor": 2635,
      "inside": 2636,
      "concer": 2637,
      "ival": 2638,
      "directing": 2639,
      "avoid": 2640,
      "portrayed": 2641,
      "AD": 2642,
      "neg": 2643,
      "spent": 2644,
      "\")": 2645,
      "creepy": 2646,
      "En": 2647,
      "Hor": 2648,
      "development": 2649,
      "political": 2650,
      "cir": 2651,
      "arre": 2652,
      "nother": 2653,
      "store": 2654,
      "reasons": 2655,
      "Bill": 2656,
      "cock": 2657,
      "occas": 2658,
      "Another": 2659,
      "recor": 2660,
      "walk": 2661,
      "eventually": 2662,
      "necessary": 2663,
      "directors": 2664,
      "rit": 2665,
      "design": 2666,
      "talented": 2667,
      "unning": 2668,
      "accur": 2669,
      "La": 2670,
      "Mat": 2671,
      "Pro": 2672,
      "cute": 2673,
      "arring": 2674,
      "15": 2675,
      "project": 2676,
      "fighting": 2677,
      "fails": 2678,
      "langu": 2679,
      "bs": 2680,
      "offic": 2681,
      "cartoon": 2682,
      "sounds": 2683,
      "reveal": 2684,
      "Bet": 2685,
      "spirit": 2686,
      "sleep": 2687,
      "dev": 2688,
      "deserves": 2689,
      "execut": 2690,
      "ero": 2691,
      "ford": 2692,
      "wasted": 2693,
      "casting": 2694,
      "bert": 2695,
      "ush": 2696,
      "brain": 2697,
      "venge": 2698,
      "psycho": 2699,
      "return": 2700,
      "Sm": 2701,
      "ius": 2702,
      "flat": 2703,
      "beauty": 2704,
      "logical": 2705,
      "andy": 2706,
      "plenty": 2707,
      "table": 2708,
      "ES": 2709,
      "erson": 2710,
      "filled": 2711,
      "manages": 2712,
      "itted": 2713,
      "ague": 2714,
      "invest": 2715,
      "spl": 2716,
      "phys": 2717,
      "Russ": 2718,
      "anna": 2719,
      "lid": 2720,
      "created": 2721,
      "tre": 2722,
      "revol": 2723,
      "ideas": 2724,
      "194": 2725,
      "expecting": 2726,
      "attempts": 2727,
      "CH": 2728,
      "nud": 2729,
      "ares": 2730,
      "company": 2731,
      "missed": 2732,
      "AS": 2733,
      "social": 2734,
      "missing": 2735,
      "satisf": 2736,
      "insp": 2737,
      "elling": 2738,
      "Still": 2739,
      "explain": 2740,
      "accident": 2741,
      "died": 2742,
      "cape": 2743,
      "depth": 2744,
      "western": 2745,
      "Ab": 2746,
      "drag": 2747,
      "World": 2748,
      "indeed": 2749,
      "regard": 2750,
      "ican": 2751,
      "tort": 2752,
      "Tim": 2753,
      "Van": 2754,
      "stal": 2755,
      "psych": 2756,
      "extra": 2757,
      "whatever": 2758,
      "former": 2759,
      "90": 2760,
      "achie": 2761,
      "Ju": 2762,
      "idi": 2763,
      "outside": 2764,
      "mood": 2765,
      "caught": 2766,
      "produced": 2767,
      "iff": 2768,
      "Director": 2769,
      "Mur": 2770,
      "inary": 2771,
      "195": 2772,
      "biz": 2773,
      "row": 2774,
      "explo": 2775,
      "lady": 2776,
      "disc": 2777,
      "positive": 2778,
      "nie": 2779,
      "logy": 2780,
      "common": 2781,
      "(\"": 2782,
      "Instead": 2783,
      "laughing": 2784,
      "Italian": 2785,
      "pace": 2786,
      "remake": 2787,
      "olf": 2788,
      "Jane": 2789,
      "dim": 2790,
      "suit": 2791,
      "relig": 2792,
      "iel": 2793,
      "arrass": 2794,
      "bes": 2795,
      "Act": 2796,
      "Mad": 2797,
      "potential": 2798,
      "luck": 2799,
      "crazy": 2800,
      "contri": 2801,
      "ost": 2802,
      "remark": 2803,
      "subtle": 2804,
      "LY": 2805,
      "filmmakers": 2806,
      "escape": 2807,
      "wrote": 2808,
      "iced": 2809,
      "recently": 2810,
      "mes": 2811,
      "Love": 2812,
      "ships": 2813,
      "iously": 2814,
      "trail": 2815,
      "credit": 2816,
      "embarrass": 2817,
      "cei": 2818,
      "ders": 2819,
      "vampire": 2820,
      "brief": 2821,
      "prot": 2822,
      "izing": 2823,
      "fash": 2824,
      "suspect": 2825,
      "wed": 2826,
      "wart": 2827,
      "intri": 2828,
      "Movie": 2829,
      "following": 2830,
      "arri": 2831,
      "unless": 2832,
      "nudity": 2833,
      "Europe": 2834,
      "Big": 2835,
      "thus": 2836,
      "immedi": 2837,
      "stereotyp": 2838,
      "complex": 2839,
      "Dead": 2840,
      "cross": 2841,
      "oh": 2842,
      "acts": 2843,
      "actions": 2844,
      "Gar": 2845,
      "ai": 2846,
      "hardly": 2847,
      "approach": 2848,
      "upt": 2849,
      "married": 2850,
      "waiting": 2851,
      "sweet": 2852,
      "slightly": 2853,
      "Pol": 2854,
      "Ter": 2855,
      "gress": 2856,
      "color": 2857,
      "successful": 2858,
      "further": 2859,
      "mass": 2860,
      "worthy": 2861,
      "impressive": 2862,
      "Bel": 2863,
      "High": 2864,
      "sees": 2865,
      "House": 2866,
      "Li": 2867,
      "Park": 2868,
      "sess": 2869,
      "sters": 2870,
      "earth": 2871,
      "decides": 2872,
      "esome": 2873,
      "gram": 2874,
      "fantasy": 2875,
      "berg": 2876,
      "intelligent": 2877,
      "road": 2878,
      "exciting": 2879,
      "Lou": 2880,
      "force": 2881,
      "desper": 2882,
      "value": 2883,
      "stri": 2884,
      "sport": 2885,
      "appy": 2886,
      "Perhaps": 2887,
      "moves": 2888,
      "soul": 2889,
      "delight": 2890,
      "Where": 2891,
      "OM": 2892,
      "asher": 2893,
      "ito": 2894,
      "entirely": 2895,
      "uine": 2896,
      "maker": 2897,
      "pointless": 2898,
      "depend": 2899,
      "Fr": 2900,
      "tension": 2901,
      "doll": 2902,
      "deem": 2903,
      "Gold": 2904,
      "door": 2905,
      "god": 2906,
      "follows": 2907,
      "ples": 2908,
      "portrayal": 2909,
      "Red": 2910,
      "appreciate": 2911,
      "spot": 2912,
      "Lon": 2913,
      "language": 2914,
      "itation": 2915,
      "bling": 2916,
      "pack": 2917,
      "ech": 2918,
      "iers": 2919,
      "plo": 2920,
      "Ray": 2921,
      "mere": 2922,
      "genuine": 2923,
      "bizarre": 2924,
      "Pre": 2925,
      "Rom": 2926,
      "flict": 2927,
      "unfortunately": 2928,
      "choice": 2929,
      "ites": 2930,
      "culture": 2931,
      "Hitch": 2932,
      "gain": 2933,
      "aff": 2934,
      "craf": 2935,
      "pieces": 2936,
      "comput": 2937,
      "193": 2938,
      "elly": 2939,
      "younger": 2940,
      "lik": 2941,
      "smo": 2942,
      "ded": 2943,
      "def": 2944,
      "ensive": 2945,
      "fashion": 2946,
      "bage": 2947,
      "uster": 2948,
      "Sim": 2949,
      "rough": 2950,
      "ths": 2951,
      "requ": 2952,
      "tough": 2953,
      "Mic": 2954,
      "annel": 2955,
      "Mac": 2956,
      "ades": 2957,
      "critic": 2958,
      "Film": 2959,
      "bles": 2960,
      "party": 2961,
      "terror": 2962,
      "manner": 2963,
      "inger": 2964,
      "images": 2965,
      "biggest": 2966,
      "situations": 2967,
      "ker": 2968,
      "Rock": 2969,
      "involving": 2970,
      "danger": 2971,
      "fat": 2972,
      "jump": 2973,
      "solid": 2974,
      "strugg": 2975,
      "Christmas": 2976,
      "focus": 2977,
      "impro": 2978,
      "amusing": 2979,
      "survi": 2980,
      "100": 2981,
      "longer": 2982,
      "pul": 2983,
      "likes": 2984,
      "changed": 2985,
      "control": 2986,
      "wall": 2987,
      "incredible": 2988,
      "humour": 2989,
      "Mel": 2990,
      "bi": 2991,
      "presented": 2992,
      "science": 2993,
      "dub": 2994,
      "counter": 2995,
      "gover": 2996,
      "hang": 2997,
      "avail": 2998,
      "ashing": 2999,
      "decide": 3000,
      "violent": 3001,
      "trouble": 3002,
      "OF": 3003,
      "ened": 3004,
      "host": 3005,
      "baby": 3006,
      "rect": 3007,
      "purpose": 3008,
      "dancing": 3009,
      "finish": 3010,
      "slasher": 3011,
      "normal": 3012,
      "burn": 3013,
      "formation": 3014,
      "Wil": 3015,
      "test": 3016,
      "office": 3017,
      "brut": 3018,
      "ateur": 3019,
      "producers": 3020,
      "fake": 3021,
      "Ma": 3022,
      "bomb": 3023,
      "Best": 3024,
      "Sure": 3025,
      "otherwise": 3026,
      "spend": 3027,
      "gent": 3028,
      "continu": 3029,
      "Du": 3030,
      "anda": 3031,
      "aming": 3032,
      "irty": 3033,
      "college": 3034,
      "six": 3035,
      "ribly": 3036,
      "base": 3037,
      "affect": 3038,
      "Str": 3039,
      "Day": 3040,
      "pair": 3041,
      "glad": 3042,
      "consist": 3043,
      "Bur": 3044,
      "ises": 3045,
      "Stre": 3046,
      "fear": 3047,
      "proper": 3048,
      "BC": 3049,
      "values": 3050,
      "questions": 3051,
      "Cha": 3052,
      "Vic": 3053,
      "Alex": 3054,
      "taste": 3055,
      "weren": 3056,
      "Very": 3057,
      "hid": 3058,
      "pers": 3059,
      "appearance": 3060,
      "inating": 3061,
      "itary": 3062,
      "Anyway": 3063,
      "oft": 3064,
      "lover": 3065,
      "AND": 3066,
      "iny": 3067,
      "Mary": 3068,
      "loss": 3069,
      "respons": 3070,
      "ghost": 3071,
      "garbage": 3072,
      "opport": 3073,
      "shed": 3074,
      "showed": 3075,
      "bb": 3076,
      "added": 3077,
      "barely": 3078,
      "ken": 3079,
      "leng": 3080,
      "rema": 3081,
      "ED": 3082,
      "Hen": 3083,
      "compared": 3084,
      "Angel": 3085,
      "smart": 3086,
      "inspired": 3087,
      "mistry": 3088,
      "Charles": 3089,
      "amateur": 3090,
      "developed": 3091,
      "andom": 3092,
      "singing": 3093,
      "runs": 3094,
      "Ru": 3095,
      "assu": 3096,
      "books": 3097,
      "Afr": 3098,
      "Jones": 3099,
      "inner": 3100,
      "sell": 3101,
      "faith": 3102,
      "lets": 3103,
      "failed": 3104,
      "aven": 3105,
      "Ham": 3106,
      "arily": 3107,
      "Fe": 3108,
      "Two": 3109,
      "loud": 3110,
      "suddenly": 3111,
      "Bat": 3112,
      "bot": 3113,
      "awesome": 3114,
      "chemistry": 3115,
      "Bob": 3116,
      "ilt": 3117,
      "ization": 3118,
      "considered": 3119,
      "ordinary": 3120,
      "Bri": 3121,
      "ns": 3122,
      "Tar": 3123,
      "redeem": 3124,
      "Way": 3125,
      "ba": 3126,
      "bought": 3127,
      "City": 3128,
      "sav": 3129,
      "carry": 3130,
      "shooting": 3131,
      "issues": 3132,
      "enced": 3133,
      "cold": 3134,
      "disturbing": 3135,
      "insul": 3136,
      "thes": 3137,
      "Thom": 3138,
      "crow": 3139,
      "date": 3140,
      "Jer": 3141,
      "chase": 3142,
      "ires": 3143,
      "See": 3144,
      "gag": 3145,
      "aper": 3146,
      "phen": 3147,
      "standard": 3148,
      "studio": 3149,
      "favour": 3150,
      "pract": 3151,
      "Only": 3152,
      "fo": 3153,
      "leaving": 3154,
      "impossible": 3155,
      "aking": 3156,
      "adventure": 3157,
      "exception": 3158,
      "ison": 3159,
      "dete": 3160,
      "century": 3161,
      "umes": 3162,
      "za": 3163,
      "plane": 3164,
      "genius": 3165,
      "Stan": 3166,
      "appeared": 3167,
      "OO": 3168,
      "Ken": 3169,
      "nment": 3170,
      "ov": 3171,
      "island": 3172,
      "twists": 3173,
      "thinks": 3174,
      "nical": 3175,
      "minor": 3176,
      "immediately": 3177,
      "ID": 3178,
      "70": 3179,
      "Dou": 3180,
      "succeed": 3181,
      "London": 3182,
      "names": 3183,
      "remain": 3184,
      "belief": 3185,
      "considering": 3186,
      "SPO": 3187,
      "gory": 3188,
      "trip": 3189,
      "***": 3190,
      "audiences": 3191,
      "okay": 3192,
      "Earth": 3193,
      "ceived": 3194,
      "fu": 3195,
      "roc": 3196,
      "obsess": 3197,
      "literally": 3198,
      "pan": 3199,
      "author": 3200,
      "onic": 3201,
      "basic": 3202,
      "heavy": 3203,
      "Fred": 3204,
      "impression": 3205,
      "cry": 3206,
      "Despite": 3207,
      "sitting": 3208,
      "fresh": 3209,
      "innocent": 3210,
      "cell": 3211,
      "Though": 3212,
      "spec": 3213,
      "changes": 3214,
      "Dark": 3215,
      "GI": 3216,
      "notice": 3217,
      "pal": 3218,
      "moved": 3219,
      "contr": 3220,
      "Jeff": 3221,
      "investig": 3222,
      "Jul": 3223,
      "ILER": 3224,
      "available": 3225,
      "beha": 3226,
      "sexy": 3227,
      "11": 3228,
      "core": 3229,
      "uce": 3230,
      "onto": 3231,
      "phone": 3232,
      "000": 3233,
      "likable": 3234,
      "tend": 3235,
      "random": 3236,
      "likely": 3237,
      "occur": 3238,
      "Paris": 3239,
      "Sy": 3240,
      "plus": 3241,
      "SPOILER": 3242,
      "Because": 3243,
      "mission": 3244,
      "lay": 3245,
      "ands": 3246,
      "starring": 3247,
      "club": 3248,
      "threat": 3249,
      "stunning": 3250,
      "aine": 3251,
      "conclusion": 3252,
      "alive": 3253,
      "views": 3254,
      "steal": 3255,
      "motion": 3256,
      "Bad": 3257,
      "irth": 3258,
      "places": 3259,
      "computer": 3260,
      "stem": 3261,
      "throw": 3262,
      "Never": 3263,
      "sen": 3264,
      "passion": 3265,
      "Yet": 3266,
      "revenge": 3267,
      "indust": 3268,
      "criminal": 3269,
      "born": 3270,
      "dad": 3271,
      "sight": 3272,
      "animated": 3273,
      "climax": 3274,
      "intrigu": 3275,
      "wel": 3276,
      "neither": 3277,
      "iller": 3278,
      "zombie": 3279,
      "Sar": 3280,
      "depress": 3281,
      "Kr": 3282,
      "tone": 3283,
      "scenery": 3284,
      "Charlie": 3285,
      "itor": 3286,
      "squ": 3287,
      "icated": 3288,
      "program": 3289,
      "Jean": 3290,
      "current": 3291,
      "magic": 3292,
      "bol": 3293,
      "somewhere": 3294,
      "ody": 3295,
      "presence": 3296,
      "terms": 3297,
      "hun": 3298,
      "nu": 3299,
      "cinematic": 3300,
      "Steve": 3301,
      "witness": 3302,
      "wild": 3303,
      "intended": 3304,
      "rey": 3305,
      "verse": 3306,
      "journey": 3307,
      "13": 3308,
      "ena": 3309,
      "ified": 3310,
      "destroy": 3311,
      "mm": 3312,
      "shad": 3313,
      "void": 3314,
      "nowhere": 3315,
      "cks": 3316,
      "People": 3317,
      "soldiers": 3318,
      "flashback": 3319,
      "Ple": 3320,
      "surprisingly": 3321,
      "esh": 3322,
      "managed": 3323,
      "moral": 3324,
      "\".<": 3325,
      "eth": 3326,
      "conflict": 3327,
      "Ok": 3328,
      "anks": 3329,
      "neigh": 3330,
      "boyfriend": 3331,
      "enter": 3332,
      "loves": 3333,
      "watchable": 3334,
      "Ac": 3335,
      "Too": 3336,
      "icide": 3337,
      "Show": 3338,
      "pen": 3339,
      "idence": 3340,
      "gry": 3341,
      "affair": 3342,
      "bled": 3343,
      "thrown": 3344,
      "photography": 3345,
      "AM": 3346,
      "Dar": 3347,
      "Miss": 3348,
      "dom": 3349,
      "comedies": 3350,
      "curi": 3351,
      "Christian": 3352,
      "18": 3353,
      "rare": 3354,
      "mental": 3355,
      "ultimately": 3356,
      "remains": 3357,
      "gas": 3358,
      "riage": 3359,
      "izes": 3360,
      "million": 3361,
      "loy": 3362,
      "load": 3363,
      "adaptation": 3364,
      "Sci": 3365,
      "WW": 3366,
      "ify": 3367,
      "historical": 3368,
      "AC": 3369,
      "Hel": 3370,
      "mult": 3371,
      "ura": 3372,
      "plots": 3373,
      "correct": 3374,
      "Smith": 3375,
      "Life": 3376,
      "intent": 3377,
      "suppose": 3378,
      "divid": 3379,
      "vert": 3380,
      "charming": 3381,
      "gold": 3382,
      "narrative": 3383,
      "constantly": 3384,
      "commer": 3385,
      "Nothing": 3386,
      "Indian": 3387,
      "beautifully": 3388,
      "emotions": 3389,
      "military": 3390,
      "Bas": 3391,
      "tur": 3392,
      "offer": 3393,
      "details": 3394,
      "Mark": 3395,
      "Sun": 3396,
      "gg": 3397,
      "escap": 3398,
      "edge": 3399,
      "building": 3400,
      "drink": 3401,
      "utterly": 3402,
      "lab": 3403,
      "alien": 3404,
      "Harry": 3405,
      "abr": 3406,
      "professional": 3407,
      "protagon": 3408,
      "ining": 3409,
      "position": 3410,
      "40": 3411,
      "mouth": 3412,
      "influ": 3413,
      "feat": 3414,
      "loose": 3415,
      "individ": 3416,
      "theless": 3417,
      "ander": 3418,
      "shop": 3419,
      "urch": 3420,
      "exp": 3421,
      "appropri": 3422,
      "nast": 3423,
      "ties": 3424,
      "terrific": 3425,
      "Bruce": 3426,
      "drawn": 3427,
      "chall": 3428,
      "Ra": 3429,
      "aint": 3430,
      "laughable": 3431,
      "ledge": 3432,
      "Ry": 3433,
      "len": 3434,
      "stands": 3435,
      "producer": 3436,
      "Tony": 3437,
      "fool": 3438,
      "prop": 3439,
      "Many": 3440,
      "Pal": 3441,
      "raid": 3442,
      "Austral": 3443,
      "tt": 3444,
      "wis": 3445,
      "ico": 3446,
      "recommended": 3447,
      "HO": 3448,
      "More": 3449,
      "ively": 3450,
      "disappointing": 3451,
      "pun": 3452,
      "feelings": 3453,
      "touching": 3454,
      "arts": 3455,
      "government": 3456,
      "chick": 3457,
      "lia": 3458,
      "qual": 3459,
      "boss": 3460,
      "generally": 3461,
      "pil": 3462,
      "init": 3463,
      "unbelievable": 3464,
      "aware": 3465,
      "ride": 3466,
      "charm": 3467,
      "costumes": 3468,
      "painful": 3469,
      "lived": 3470,
      "filming": 3471,
      "puts": 3472,
      "Boy": 3473,
      "Hitchcock": 3474,
      "tun": 3475,
      "12": 3476,
      "comfort": 3477,
      "surround": 3478,
      "ched": 3479,
      "absur": 3480,
      "amed": 3481,
      "willing": 3482,
      "titles": 3483,
      "gust": 3484,
      "mir": 3485,
      "bear": 3486,
      "spital": 3487,
      "lovely": 3488,
      "medio": 3489,
      "themes": 3490,
      "hoping": 3491,
      "placed": 3492,
      "Spe": 3493,
      "flow": 3494,
      "difference": 3495,
      "Once": 3496,
      "attractive": 3497,
      "wide": 3498,
      "intense": 3499,
      "South": 3500,
      "via": 3501,
      "EVER": 3502,
      "andon": 3503,
      "excuse": 3504,
      "slowly": 3505,
      "aspects": 3506,
      "awk": 3507,
      "content": 3508,
      "walking": 3509,
      "aus": 3510,
      "fiction": 3511,
      "drive": 3512,
      "mistake": 3513,
      "Shak": 3514,
      "Hard": 3515,
      "inspir": 3516,
      "ante": 3517,
      "knowing": 3518,
      "commercial": 3519,
      "disappointment": 3520,
      "silent": 3521,
      "student": 3522,
      "individual": 3523,
      "itude": 3524,
      "mysterious": 3525,
      "West": 3526,
      "tar": 3527,
      "zy": 3528,
      "tired": 3529,
      "Cam": 3530,
      "subst": 3531,
      "laughter": 3532,
      "clean": 3533,
      "ior": 3534,
      "drunk": 3535,
      "race": 3536,
      "lighting": 3537,
      "expectations": 3538,
      "Stewart": 3539,
      "Super": 3540,
      "behavi": 3541,
      "lose": 3542,
      "topher": 3543,
      "lyn": 3544,
      "inj": 3545,
      "equally": 3546,
      "held": 3547,
      "legend": 3548,
      "ady": 3549,
      "graphic": 3550,
      "ki": 3551,
      "Martin": 3552,
      "Sand": 3553,
      "ape": 3554,
      "mine": 3555,
      "outstanding": 3556,
      "fascinating": 3557,
      "circ": 3558,
      "opportunity": 3559,
      "cal": 3560,
      "resem": 3561,
      "entially": 3562,
      "system": 3563,
      "contains": 3564,
      "image": 3565,
      "Christopher": 3566,
      "?!": 3567,
      "Lar": 3568,
      "mart": 3569,
      "agic": 3570,
      "grad": 3571,
      "evin": 3572,
      "Fox": 3573,
      "SE": 3574,
      "ider": 3575,
      "thank": 3576,
      "crack": 3577,
      "absurd": 3578,
      "nic": 3579,
      "Ali": 3580,
      "location": 3581,
      "Harr": 3582,
      "inn": 3583,
      "collection": 3584,
      "faces": 3585,
      "impressed": 3586,
      "justice": 3587,
      "serial": 3588,
      "laughed": 3589,
      "accurate": 3590,
      "IG": 3591,
      "Ram": 3592,
      "pictures": 3593,
      "include": 3594,
      "East": 3595,
      "Kelly": 3596,
      "aside": 3597,
      "disaster": 3598,
      "desert": 3599,
      "critics": 3600,
      "hook": 3601,
      "mote": 3602,
      "trick": 3603,
      "aps": 3604,
      "decis": 3605,
      "flicks": 3606,
      "students": 3607,
      ".....": 3608,
      "mainly": 3609,
      "Out": 3610,
      "noir": 3611,
      "Robin": 3612,
      "Er": 3613,
      "Ir": 3614,
      "compelling": 3615,
      "happening": 3616,
      "confusing": 3617,
      "Far": 3618,
      "bits": 3619,
      "Both": 3620,
      "Did": 3621,
      "process": 3622,
      "allowed": 3623,
      "Jon": 3624,
      "termin": 3625,
      "breath": 3626,
      "dig": 3627,
      "Everything": 3628,
      "holes": 3629,
      "broad": 3630,
      "Pow": 3631,
      "disgust": 3632,
      "fault": 3633,
      "soft": 3634,
      "helps": 3635,
      "melo": 3636,
      "irrit": 3637,
      "paid": 3638,
      "Kar": 3639,
      "Americans": 3640,
      "marriage": 3641,
      "da": 3642,
      "soci": 3643,
      "niest": 3644,
      "virt": 3645,
      "Men": 3646,
      "naked": 3647,
      "information": 3648,
      "Young": 3649,
      "lacks": 3650,
      "Billy": 3651,
      "Steven": 3652,
      "relationships": 3653,
      "trust": 3654,
      "porn": 3655,
      "onna": 3656,
      "vey": 3657,
      "shing": 3658,
      "prim": 3659,
      "phy": 3660,
      "lights": 3661,
      "Val": 3662,
      "intention": 3663,
      "Bor": 3664,
      "spectac": 3665,
      "confused": 3666,
      "drugs": 3667,
      "dread": 3668,
      "minis": 3669,
      "Mus": 3670,
      "ini": 3671,
      "een": 3672,
      "han": 3673,
      "resc": 3674,
      "folks": 3675,
      "creative": 3676,
      "Shakespe": 3677,
      "IE": 3678,
      "Naz": 3679,
      "thur": 3680,
      "cher": 3681,
      "gem": 3682,
      "ills": 3683,
      "Girl": 3684,
      "Little": 3685,
      "sal": 3686,
      "ases": 3687,
      "ado": 3688,
      "Dick": 3689,
      "lif": 3690,
      "share": 3691,
      "ural": 3692,
      "tood": 3693,
      "giant": 3694,
      "news": 3695,
      "actresses": 3696,
      "struct": 3697,
      "Story": 3698,
      "dreams": 3699,
      "Part": 3700,
      "edy": 3701,
      "emplo": 3702,
      "record": 3703,
      "Di": 3704,
      "Gi": 3705,
      "rout": 3706,
      "compet": 3707,
      "traged": 3708,
      "victims": 3709,
      "Ant": 3710,
      "seemingly": 3711,
      "adds": 3712,
      "ibility": 3713,
      "Mex": 3714,
      "gorge": 3715,
      "independ": 3716,
      "compan": 3717,
      "zo": 3718,
      "sey": 3719,
      "object": 3720,
      "hospital": 3721,
      "dated": 3722,
      "seg": 3723,
      "forgotten": 3724,
      "forever": 3725,
      "safe": 3726,
      "ablish": 3727,
      "Russian": 3728,
      "remote": 3729,
      "argu": 3730,
      "station": 3731,
      "Mal": 3732,
      "offers": 3733,
      "anted": 3734,
      "leader": 3735,
      "Canad": 3736,
      "negative": 3737,
      "delivers": 3738,
      "fright": 3739,
      "thorough": 3740,
      "Please": 3741,
      "answer": 3742,
      "flaws": 3743,
      "mut": 3744,
      "nobody": 3745,
      "putting": 3746,
      "Den": 3747,
      "eat": 3748,
      "establish": 3749,
      "lessly": 3750,
      "zombies": 3751,
      "wondering": 3752,
      "superi": 3753,
      "loving": 3754,
      "ups": 3755,
      "igno": 3756,
      "anymore": 3757,
      "funniest": 3758,
      "finding": 3759,
      "warm": 3760,
      "progress": 3761,
      "explained": 3762,
      "Arthur": 3763,
      "Look": 3764,
      "itions": 3765,
      "heal": 3766,
      "everybody": 3767,
      "trailer": 3768,
      "Jackson": 3769,
      "industry": 3770,
      "hab": 3771,
      "iles": 3772,
      "explan": 3773,
      "----": 3774,
      "falling": 3775,
      "multi": 3776,
      "Fl": 3777,
      "inci": 3778,
      "hasn": 3779,
      "prote": 3780,
      "length": 3781,
      "artist": 3782,
      "frust": 3783,
      "possess": 3784,
      "stuck": 3785,
      "honestly": 3786,
      "adults": 3787,
      "Batman": 3788,
      "uts": 3789,
      "cele": 3790,
      "matic": 3791,
      "ita": 3792,
      "sky": 3793,
      "provides": 3794,
      "merely": 3795,
      "DO": 3796,
      "uous": 3797,
      "aries": 3798,
      "fellow": 3799,
      "detective": 3800,
      "ahead": 3801,
      "contem": 3802,
      "double": 3803,
      "neighbor": 3804,
      "60": 3805,
      "Jud": 3806,
      "Western": 3807,
      "becoming": 3808,
      "suicide": 3809,
      "prefer": 3810,
      "blind": 3811,
      "imagination": 3812,
      "element": 3813,
      "MO": 3814,
      "thin": 3815,
      "grow": 3816,
      "Jes": 3817,
      "kno": 3818,
      "ilities": 3819,
      "rog": 3820,
      "gorgeous": 3821,
      "BO": 3822,
      "Eli": 3823,
      "itional": 3824,
      "heads": 3825,
      "followed": 3826,
      "deserved": 3827,
      "Ms": 3828,
      "rape": 3829,
      "standards": 3830,
      "rented": 3831,
      "breaking": 3832,
      "pleasant": 3833,
      "reminded": 3834,
      "mediocre": 3835,
      "eper": 3836,
      "personality": 3837,
      "planet": 3838,
      "opera": 3839,
      "occasion": 3840,
      "LA": 3841,
      "kin": 3842,
      "asks": 3843,
      "Bond": 3844,
      "Lyn": 3845,
      "magn": 3846,
      "numbers": 3847,
      "Jason": 3848,
      "Tre": 3849,
      "shocking": 3850,
      "Shakespeare": 3851,
      "Bol": 3852,
      "latter": 3853,
      "va": 3854,
      "mob": 3855,
      "area": 3856,
      "soever": 3857,
      "twice": 3858,
      "emp": 3859,
      "Death": 3860,
      "iest": 3861,
      "picked": 3862,
      "teacher": 3863,
      "Les": 3864,
      "bum": 3865,
      "ping": 3866,
      "bell": 3867,
      "ama": 3868,
      "boat": 3869,
      "kidn": 3870,
      "cops": 3871,
      "drop": 3872,
      "scientist": 3873,
      "BE": 3874,
      "Having": 3875,
      "wearing": 3876,
      "whatsoever": 3877,
      "animals": 3878,
      "IC": 3879,
      "eight": 3880,
      "tran": 3881,
      "VE": 3882,
      "uff": 3883,
      "forgettable": 3884,
      "Their": 3885,
      "tragic": 3886,
      "helped": 3887,
      "supposedly": 3888,
      "streng": 3889,
      "pleasure": 3890,
      ".,": 3891,
      "evol": 3892,
      "stein": 3893,
      "sident": 3894,
      "icate": 3895,
      "addition": 3896,
      "Phil": 3897,
      "hide": 3898,
      "asked": 3899,
      "thanks": 3900,
      "Que": 3901,
      "bright": 3902,
      "UN": 3903,
      "boo": 3904,
      "Henry": 3905,
      "Lau": 3906,
      "gin": 3907,
      "fill": 3908,
      "comparis": 3909,
      "Sil": 3910,
      "shouldn": 3911,
      "empt": 3912,
      "slap": 3913,
      "imagin": 3914,
      "Thomas": 3915,
      "nasty": 3916,
      "Kevin": 3917,
      "sour": 3918,
      "text": 3919,
      "ules": 3920,
      "oppos": 3921,
      "achieve": 3922,
      "celebr": 3923,
      "quiet": 3924,
      "horse": 3925,
      "Ford": 3926,
      "Ryan": 3927,
      "formula": 3928,
      "Since": 3929,
      "artistic": 3930,
      "weap": 3931,
      "proves": 3932,
      "commun": 3933,
      "childhood": 3934,
      "Law": 3935,
      "/>-": 3936,
      "oted": 3937,
      "agger": 3938,
      "grace": 3939,
      "turning": 3940,
      "bottom": 3941,
      "Sad": 3942,
      "grade": 3943,
      "remarkable": 3944,
      "tragedy": 3945,
      "fish": 3946,
      "aton": 3947,
      "convers": 3948,
      "realized": 3949,
      "dying": 3950,
      "issue": 3951,
      "aining": 3952,
      "Blood": 3953,
      "thoroughly": 3954,
      "Sus": 3955,
      "itty": 3956,
      "illa": 3957,
      "seconds": 3958,
      "calls": 3959,
      "speaking": 3960,
      "hey": 3961,
      "grat": 3962,
      "afraid": 3963,
      "ugly": 3964,
      "regular": 3965,
      "discuss": 3966,
      "Par": 3967,
      "ju": 3968,
      "noticed": 3969,
      "apo": 3970,
      "realism": 3971,
      "sadly": 3972,
      "Space": 3973,
      "superior": 3974,
      "sed": 3975,
      "ctions": 3976,
      "symbol": 3977,
      "Mag": 3978,
      "fif": 3979,
      "punch": 3980,
      ".'": 3981,
      "reck": 3982,
      "ston": 3983,
      "gling": 3984,
      "fits": 3985,
      "sun": 3986,
      "commentary": 3987,
      "pra": 3988,
      "wooden": 3989,
      "Anne": 3990,
      "Oli": 3991,
      "fly": 3992,
      "began": 3993,
      "continue": 3994,
      "rupt": 3995,
      "epic": 3996,
      "finished": 3997,
      "surely": 3998,
      "fights": 3999,
      "murders": 4000,
      "Danny": 4001,
      "responsible": 4002,
      "Okay": 4003,
      "wolf": 4004,
      "army": 4005,
      "aud": 4006,
      "inese": 4007,
      "Second": 4008,
      "listen": 4009,
      "damn": 4010,
      "80s": 4011,
      "sin": 4012,
      "channel": 4013,
      "scare": 4014,
      "provide": 4015,
      "awn": 4016,
      "understanding": 4017,
      "physical": 4018,
      "Dor": 4019,
      "tes": 4020,
      "ella": 4021,
      "central": 4022,
      "creature": 4023,
      "CGI": 4024,
      "Dam": 4025,
      "Finally": 4026,
      "games": 4027,
      "crash": 4028,
      "winning": 4029,
      "birth": 4030,
      "national": 4031,
      "angry": 4032,
      "Gor": 4033,
      "mount": 4034,
      "stat": 4035,
      "insight": 4036,
      "stock": 4037,
      "clothes": 4038,
      "repeated": 4039,
      "describe": 4040,
      "Horror": 4041,
      "RA": 4042,
      "yle": 4043,
      "stunt": 4044,
      "Fi": 4045,
      "agent": 4046,
      "White": 4047,
      "perform": 4048,
      "azz": 4049,
      "introduced": 4050,
      "energy": 4051,
      "print": 4052,
      "relative": 4053,
      "apartment": 4054,
      "witch": 4055,
      "beth": 4056,
      "auto": 4057,
      "wee": 4058,
      "Moo": 4059,
      "wanting": 4060,
      "Mer": 4061,
      "VH": 4062,
      "bill": 4063,
      "motiv": 4064,
      "separ": 4065,
      "impact": 4066,
      "struggle": 4067,
      "Jerry": 4068,
      "Sher": 4069,
      "Ver": 4070,
      "fold": 4071,
      "prep": 4072,
      "religious": 4073,
      ")<": 4074,
      "Cra": 4075,
      "agers": 4076,
      "memory": 4077,
      "presents": 4078,
      "Kid": 4079,
      "block": 4080,
      "ya": 4081,
      "ency": 4082,
      "unexpected": 4083,
      "player": 4084,
      "Chan": 4085,
      "priv": 4086,
      "hat": 4087,
      "prec": 4088,
      "Ye": 4089,
      "vive": 4090,
      "ays": 4091,
      "compare": 4092,
      "redeeming": 4093,
      "manage": 4094,
      "account": 4095,
      "soldier": 4096,
      "Nick": 4097,
      "food": 4098,
      "teenage": 4099,
      "favourite": 4100,
      "holds": 4101,
      "cow": 4102,
      "fli": 4103,
      "asing": 4104,
      "youth": 4105,
      "Chinese": 4106,
      "comedic": 4107,
      "frame": 4108,
      "explos": 4109,
      "Johnny": 4110,
      "Williams": 4111,
      "brutal": 4112,
      "ben": 4113,
      "intriguing": 4114,
      "brothers": 4115,
      "creating": 4116,
      "limited": 4117,
      "aire": 4118,
      "pup": 4119,
      "zen": 4120,
      "erous": 4121,
      "Roy": 4122,
      "surprising": 4123,
      "Carr": 4124,
      "GE": 4125,
      "Jr": 4126,
      "Mi": 4127,
      "Allen": 4128,
      "techni": 4129,
      "conc": 4130,
      "ifer": 4131,
      "capable": 4132,
      "asure": 4133,
      "ousy": 4134,
      "anywhere": 4135,
      "interpret": 4136,
      "ski": 4137,
      "Master": 4138,
      "cable": 4139,
      "unknown": 4140,
      "filmmaker": 4141,
      "depart": 4142,
      "award": 4143,
      "Brother": 4144,
      "belong": 4145,
      "Stephen": 4146,
      "deserve": 4147,
      "rage": 4148,
      "irt": 4149,
      "knowledge": 4150,
      "clichés": 4151,
      "Brian": 4152,
      "contrast": 4153,
      "appropriate": 4154,
      "tack": 4155,
      "intelligence": 4156,
      "torture": 4157,
      "nal": 4158,
      "tears": 4159,
      "martial": 4160,
      "DE": 4161,
      "onder": 4162,
      "otes": 4163,
      "Those": 4164,
      "skin": 4165,
      "educ": 4166,
      "AY": 4167,
      "hic": 4168,
      "personally": 4169,
      "Was": 4170,
      "bland": 4171,
      "answ": 4172,
      "woods": 4173,
      "deeply": 4174,
      "uel": 4175,
      "nold": 4176,
      "Which": 4177,
      "sympath": 4178,
      "awkward": 4179,
      "Mike": 4180,
      "extr": 4181,
      "civil": 4182,
      "Joan": 4183,
      "explore": 4184,
      "Adam": 4185,
      "paced": 4186,
      "bank": 4187,
      "research": 4188,
      "engaging": 4189,
      "bbish": 4190,
      "Last": 4191,
      "fle": 4192,
      "wonderfully": 4193,
      "priest": 4194,
      "sucks": 4195,
      "Rus": 4196,
      "yer": 4197,
      "thous": 4198,
      "partner": 4199,
      "spective": 4200,
      "elect": 4201,
      "undred": 4202,
      "techno": 4203,
      "Green": 4204,
      "Hell": 4205,
      "anch": 4206,
      "resol": 4207,
      "assist": 4208,
      "Howard": 4209,
      "includes": 4210,
      "explanation": 4211,
      "hint": 4212,
      "sole": 4213,
      "cuts": 4214,
      "Tay": 4215,
      "Alan": 4216,
      "Moore": 4217,
      "card": 4218,
      "hotel": 4219,
      "70s": 4220,
      "nomin": 4221,
      "pse": 4222,
      "arm": 4223,
      "Thank": 4224,
      "cup": 4225,
      "Brook": 4226,
      "Before": 4227,
      "gags": 4228,
      "tour": 4229,
      "deb": 4230,
      "blame": 4231,
      "buff": 4232,
      "Eddie": 4233,
      "Everyone": 4234,
      "radio": 4235,
      "RO": 4236,
      "Sin": 4237,
      "Tal": 4238,
      "dimens": 4239,
      "magnific": 4240,
      "ils": 4241,
      "ilst": 4242,
      "friendship": 4243,
      "independent": 4244,
      "Tex": 4245,
      "fare": 4246,
      "mally": 4247,
      "nia": 4248,
      "abs": 4249,
      "heroes": 4250,
      "signific": 4251,
      "Ron": 4252,
      "jer": 4253,
      "unusual": 4254,
      "weight": 4255,
      "twenty": 4256,
      "reminds": 4257,
      "ka": 4258,
      "product": 4259,
      "captured": 4260,
      "bio": 4261,
      "sac": 4262,
      "VHS": 4263,
      "Lind": 4264,
      "bath": 4265,
      "flying": 4266,
      "hundred": 4267,
      "inct": 4268,
      "tight": 4269,
      "irk": 4270,
      "pacing": 4271,
      "entious": 4272,
      "wash": 4273,
      "angle": 4274,
      "locations": 4275,
      "capture": 4276,
      "rick": 4277,
      "sli": 4278,
      "nicely": 4279,
      "Max": 4280,
      "cus": 4281,
      "mild": 4282,
      "stink": 4283,
      "acqu": 4284,
      "accompl": 4285,
      "ademy": 4286,
      "discovered": 4287,
      "humanity": 4288,
      "bound": 4289,
      "returns": 4290,
      "scared": 4291,
      "crowd": 4292,
      "hurt": 4293,
      "ray": 4294,
      "represent": 4295,
      "iled": 4296,
      "thats": 4297,
      "soap": 4298,
      "anybody": 4299,
      "intellect": 4300,
      "itous": 4301,
      "Mid": 4302,
      "asp": 4303,
      "lied": 4304,
      "relev": 4305,
      "spectacular": 4306,
      ":<": 4307,
      "rarely": 4308,
      "ators": 4309,
      "learned": 4310,
      "memories": 4311,
      "machine": 4312,
      "dangerous": 4313,
      "opposite": 4314,
      "wing": 4315,
      "iro": 4316,
      "herent": 4317,
      "owner": 4318,
      "cording": 4319,
      "Span": 4320,
      "sympathetic": 4321,
      "judge": 4322,
      "Capt": 4323,
      "served": 4324,
      "insane": 4325,
      "Ann": 4326,
      "Eric": 4327,
      "hated": 4328,
      "aly": 4329,
      "advert": 4330,
      "scr": 4331,
      "lovers": 4332,
      "viewed": 4333,
      "ivity": 4334,
      "summer": 4335,
      "Im": 4336,
      "formed": 4337,
      "unnecessary": 4338,
      "debut": 4339,
      "Brown": 4340,
      "months": 4341,
      "nonsense": 4342,
      "references": 4343,
      "si": 4344,
      "prove": 4345,
      "blue": 4346,
      "Donald": 4347,
      "treated": 4348,
      "Und": 4349,
      "vit": 4350,
      "leep": 4351,
      "unting": 4352,
      "community": 4353,
      "Taylor": 4354,
      "incre": 4355,
      "proceed": 4356,
      "TO": 4357,
      "consc": 4358,
      "Mrs": 4359,
      "rical": 4360,
      "ication": 4361,
      "invent": 4362,
      "stream": 4363,
      "floor": 4364,
      "hidden": 4365,
      "Gl": 4366,
      "Spo": 4367,
      "ipul": 4368,
      "courage": 4369,
      "grapher": 4370,
      "yeah": 4371,
      "minim": 4372,
      "ville": 4373,
      "North": 4374,
      "lat": 4375,
      "mare": 4376,
      "visit": 4377,
      "technical": 4378,
      "ancy": 4379,
      "vehic": 4380,
      "players": 4381,
      "Barbar": 4382,
      "Jenn": 4383,
      "ga": 4384,
      "pretentious": 4385,
      "smile": 4386,
      "heroine": 4387,
      "stret": 4388,
      "edited": 4389,
      "lacking": 4390,
      "Bud": 4391,
      "dry": 4392,
      "range": 4393,
      "Lewis": 4394,
      "behavior": 4395,
      "knock": 4396,
      "Jose": 4397,
      "iling": 4398,
      "grave": 4399,
      "Sean": 4400,
      "comparison": 4401,
      "hits": 4402,
      "vs": 4403,
      "seat": 4404,
      "ption": 4405,
      "rubbish": 4406,
      "driving": 4407,
      "Cass": 4408,
      "bid": 4409,
      "impl": 4410,
      "compe": 4411,
      "saur": 4412,
      "osen": 4413,
      "keeping": 4414,
      "humans": 4415,
      "iloso": 4416,
      "gal": 4417,
      "lon": 4418,
      "py": 4419,
      "chore": 4420,
      "efforts": 4421,
      "brok": 4422,
      "murdered": 4423,
      "Davis": 4424,
      "mixed": 4425,
      "Louis": 4426,
      "Get": 4427,
      "arp": 4428,
      "raz": 4429,
      "unders": 4430,
      "theatre": 4431,
      "Ty": 4432,
      "deals": 4433,
      "atory": 4434,
      "hadn": 4435,
      "crappy": 4436,
      "specially": 4437,
      "Gary": 4438,
      "yed": 4439,
      "frequ": 4440,
      "spoof": 4441,
      "dealing": 4442,
      "pilot": 4443,
      "paper": 4444,
      "isters": 4445,
      "model": 4446,
      "serve": 4447,
      "constant": 4448,
      "satisfying": 4449,
      "aid": 4450,
      "eating": 4451,
      "wanna": 4452,
      "pless": 4453,
      "Andrew": 4454,
      "craft": 4455,
      "bian": 4456,
      "bird": 4457,
      "asts": 4458,
      "bigger": 4459,
      "sentiment": 4460,
      "England": 4461,
      "experiment": 4462,
      "cars": 4463,
      "instance": 4464,
      "Wayne": 4465,
      "cate": 4466,
      "gri": 4467,
      "hall": 4468,
      "ooper": 4469,
      "seless": 4470,
      "foreign": 4471,
      "survive": 4472,
      "bloody": 4473,
      "villains": 4474,
      "circum": 4475,
      "thern": 4476,
      "grown": 4477,
      "philoso": 4478,
      "Anth": 4479,
      "travel": 4480,
      "Again": 4481,
      "Sal": 4482,
      "reaction": 4483,
      ".\"<": 4484,
      "humorous": 4485,
      "forces": 4486,
      "wear": 4487,
      "tape": 4488,
      "protagonist": 4489,
      "Jennifer": 4490,
      "Vin": 4491,
      "cul": 4492,
      "goof": 4493,
      "related": 4494,
      "explic": 4495,
      "glass": 4496,
      "hearted": 4497,
      "passed": 4498,
      "Guy": 4499,
      "Hu": 4500,
      "Rose": 4501,
      "bag": 4502,
      "junk": 4503,
      "omen": 4504,
      "monsters": 4505,
      "included": 4506,
      "arded": 4507,
      "flesh": 4508,
      "context": 4509,
      "rence": 4510,
      "ugs": 4511,
      "green": 4512,
      "desperate": 4513,
      "idge": 4514,
      "iring": 4515,
      "growing": 4516,
      "Barry": 4517,
      "zan": 4518,
      "format": 4519,
      "therefore": 4520,
      "mini": 4521,
      "concerned": 4522,
      "European": 4523,
      "Avoid": 4524,
      "send": 4525,
      "below": 4526,
      "inder": 4527,
      "Uni": 4528,
      "numerous": 4529,
      "Spanish": 4530,
      "uc": 4531,
      "organ": 4532,
      "oph": 4533,
      "revealed": 4534,
      "Hit": 4535,
      "Sor": 4536,
      "stit": 4537,
      "guns": 4538,
      "hopes": 4539,
      "dimensional": 4540,
      "Jan": 4541,
      "speech": 4542,
      "finest": 4543,
      "witty": 4544,
      "irritating": 4545,
      "Lam": 4546,
      "envir": 4547,
      "relate": 4548,
      "animal": 4549,
      "Wow": 4550,
      "udo": 4551,
      "fortunate": 4552,
      "Hay": 4553,
      "anced": 4554,
      "encounter": 4555,
      "ambit": 4556,
      "urse": 4557,
      "reflect": 4558,
      "advice": 4559,
      "pulled": 4560,
      ");": 4561,
      "ato": 4562,
      "church": 4563,
      "freak": 4564,
      "Lynch": 4565,
      "finale": 4566,
      "singer": 4567,
      "lucky": 4568,
      "contribut": 4569,
      "kn": 4570,
      "ano": 4571,
      "speed": 4572,
      "results": 4573,
      "window": 4574,
      "France": 4575,
      "WH": 4576,
      "fal": 4577,
      "sea": 4578,
      "sett": 4579,
      "unted": 4580,
      "hur": 4581,
      "constru": 4582,
      "ift": 4583,
      "allows": 4584,
      "cruel": 4585,
      "officer": 4586,
      "Anthony": 4587,
      "hill": 4588,
      "pit": 4589,
      "isa": 4590,
      "talents": 4591,
      "corn": 4592,
      "media": 4593,
      "remembered": 4594,
      "incident": 4595,
      "assass": 4596,
      "types": 4597,
      "ALL": 4598,
      "stereotypes": 4599,
      "Street": 4600,
      "fate": 4601,
      "park": 4602,
      "skills": 4603,
      "study": 4604,
      "Texas": 4605,
      "Wr": 4606,
      "__": 4607,
      "terribly": 4608,
      "ender": 4609,
      "udes": 4610,
      "None": 4611,
      "chop": 4612,
      "bodies": 4613,
      "psychological": 4614,
      "circumst": 4615,
      "environ": 4616,
      "bow": 4617,
      "manipul": 4618,
      "ishing": 4619,
      "SPOILERS": 4620,
      "received": 4621,
      "peace": 4622,
      "ONE": 4623,
      "challeng": 4624,
      "atives": 4625,
      "abandon": 4626,
      "charis": 4627,
      "ears": 4628,
      "starting": 4629,
      "Anna": 4630,
      "statement": 4631,
      "African": 4632,
      "broken": 4633,
      "16": 4634,
      "Up": 4635,
      "sheer": 4636,
      "generation": 4637,
      "experienced": 4638,
      "EL": 4639,
      "vac": 4640,
      "Andy": 4641,
      "covered": 4642,
      "parody": 4643,
      "toward": 4644,
      "provo": 4645,
      "porary": 4646,
      "teenagers": 4647,
      "comfortable": 4648,
      "25": 4649,
      "Die": 4650,
      "Sur": 4651,
      "site": 4652,
      "associ": 4653,
      "ario": 4654,
      "somebody": 4655,
      "attitude": 4656,
      "Lord": 4657,
      "wound": 4658,
      "princi": 4659,
      "saved": 4660,
      "San": 4661,
      "unfold": 4662,
      "kinda": 4663,
      "convent": 4664,
      "levels": 4665,
      "Kill": 4666,
      "Tru": 4667,
      "oop": 4668,
      "rival": 4669,
      "???": 4670,
      "Mean": 4671,
      "bringing": 4672,
      "genuinely": 4673,
      "Dun": 4674,
      "Matt": 4675,
      "RI": 4676,
      "mate": 4677,
      "mary": 4678,
      "seven": 4679,
      "forms": 4680,
      "fet": 4681,
      "Jimmy": 4682,
      "Viet": 4683,
      "weal": 4684,
      "mature": 4685,
      "miser": 4686,
      "regret": 4687,
      "powers": 4688,
      "existence": 4689,
      "empty": 4690,
      "Time": 4691,
      "sons": 4692,
      "versal": 4693,
      "court": 4694,
      "creates": 4695,
      "breaks": 4696,
      "target": 4697,
      "Fer": 4698,
      "feet": 4699,
      "continues": 4700,
      "Morgan": 4701,
      "Julie": 4702,
      "Zomb": 4703,
      "cash": 4704,
      "alle": 4705,
      "altern": 4706,
      "unfunny": 4707,
      "failure": 4708,
      "edom": 4709,
      "morning": 4710,
      "satire": 4711,
      "rifying": 4712,
      "connection": 4713,
      "dressed": 4714,
      "strength": 4715,
      "14": 4716,
      "sharp": 4717,
      "built": 4718,
      "marry": 4719,
      "Leon": 4720,
      "cameo": 4721,
      "occasionally": 4722,
      "Cine": 4723,
      "Camp": 4724,
      "Lady": 4725,
      "chair": 4726,
      "veter": 4727,
      "determin": 4728,
      "opens": 4729,
      "famil": 4730,
      "relief": 4731,
      "Island": 4732,
      "hack": 4733,
      "tho": 4734,
      "Moon": 4735,
      "reviewers": 4736,
      "visuals": 4737,
      "Sant": 4738,
      "glas": 4739,
      "Are": 4740,
      "cant": 4741,
      "grew": 4742,
      "rise": 4743,
      "originally": 4744,
      "warning": 4745,
      "market": 4746,
      "described": 4747,
      "featuring": 4748,
      "Australian": 4749,
      "Gener": 4750,
      "Jess": 4751,
      "unrealistic": 4752,
      "apes": 4753,
      "desire": 4754,
      "frank": 4755,
      "sides": 4756,
      "simpl": 4757,
      "sucked": 4758,
      "Cast": 4759,
      "irm": 4760,
      "blown": 4761,
      "evidence": 4762,
      "Stu": 4763,
      "THIS": 4764,
      "decision": 4765,
      "aker": 4766,
      "Dian": 4767,
      "perspective": 4768,
      "overly": 4769,
      "alloween": 4770,
      "Douglas": 4771,
      "lum": 4772,
      "slo": 4773,
      "erotic": 4774,
      "plin": 4775,
      "---": 4776,
      "Asian": 4777,
      "Really": 4778,
      "REAL": 4779,
      "appealing": 4780,
      "demonstr": 4781,
      "magnificent": 4782,
      "vote": 4783,
      "cha": 4784,
      "unable": 4785,
      "........": 4786,
      "discovers": 4787,
      "festival": 4788,
      "Queen": 4789,
      "Barbara": 4790,
      "pin": 4791,
      "vul": 4792,
      "Keaton": 4793,
      "contrived": 4794,
      "Watching": 4795,
      "traditional": 4796,
      "Hall": 4797,
      "switch": 4798,
      "Hart": 4799,
      "Much": 4800,
      "Old": 4801,
      "Pac": 4802,
      "lesson": 4803,
      "surreal": 4804,
      "decade": 4805,
      "Being": 4806,
      "delivered": 4807,
      "ultimate": 4808,
      "dreadful": 4809,
      "Mont": 4810,
      "Ted": 4811,
      "athan": 4812,
      "bon": 4813,
      "ec": 4814,
      "nation": 4815,
      "anic": 4816,
      "shallow": 4817,
      "cares": 4818,
      "labor": 4819,
      "cis": 4820,
      "preh": 4821,
      "gangster": 4822,
      "provided": 4823,
      "flashbacks": 4824,
      "Hitler": 4825,
      "BBC": 4826,
      "ari": 4827,
      "whilst": 4828,
      "pity": 4829,
      "snow": 4830,
      "thent": 4831,
      "ribut": 4832,
      "Inter": 4833,
      "sake": 4834,
      "driven": 4835,
      "HA": 4836,
      "Vo": 4837,
      "eer": 4838,
      "gs": 4839,
      "ara": 4840,
      "agal": 4841,
      "higher": 4842,
      "football": 4843,
      "!).": 4844,
      "YOU": 4845,
      "ds": 4846,
      "involves": 4847,
      "refre": 4848,
      "gross": 4849,
      "inte": 4850,
      "corpor": 4851,
      "logic": 4852,
      "App": 4853,
      "essentially": 4854,
      "nox": 4855,
      "authent": 4856,
      "ette": 4857,
      "strict": 4858,
      "revolution": 4859,
      "Actually": 4860,
      "dubbed": 4861,
      "sche": 4862,
      "Three": 4863,
      "corny": 4864,
      "combination": 4865,
      "executed": 4866,
      "competent": 4867,
      "Jesus": 4868,
      "Yeah": 4869,
      "Halloween": 4870,
      "gonna": 4871,
      "stated": 4872,
      "iding": 4873,
      "pregn": 4874,
      "handed": 4875,
      "marvel": 4876,
      "teenager": 4877,
      "Anyone": 4878,
      "graphed": 4879,
      "Broad": 4880,
      "SO": 4881,
      "emer": 4882,
      "apping": 4883,
      "brilliantly": 4884,
      "suffering": 4885,
      "Kim": 4886,
      "Sto": 4887,
      "Tit": 4888,
      "gard": 4889,
      "iac": 4890,
      "proved": 4891,
      "delightful": 4892,
      "Min": 4893,
      "gers": 4894,
      "asking": 4895,
      "choose": 4896,
      "quir": 4897,
      "Alice": 4898,
      "truck": 4899,
      "conscious": 4900,
      "gor": 4901,
      "vin": 4902,
      "thro": 4903,
      "alling": 4904,
      "cient": 4905,
      "ppy": 4906,
      "rous": 4907,
      "pets": 4908,
      "rolling": 4909,
      "onde": 4910,
      "stum": 4911,
      "creatures": 4912,
      "theaters": 4913,
      "Cat": 4914,
      "uitous": 4915,
      "report": 4916,
      "ench": 4917,
      "loses": 4918,
      "document": 4919,
      "Chaplin": 4920,
      "Dem": 4921,
      "Sn": 4922,
      "Wat": 4923,
      "recall": 4924,
      "ende": 4925,
      "ache": 4926,
      "Brad": 4927,
      "walks": 4928,
      "meeting": 4929,
      "emotionally": 4930,
      "Academy": 4931,
      "curious": 4932,
      "families": 4933,
      "cook": 4934,
      "fict": 4935,
      "rain": 4936,
      "forth": 4937,
      "osex": 4938,
      "Does": 4939,
      "assume": 4940,
      "Bu": 4941,
      "Hop": 4942,
      "Tor": 4943,
      "rix": 4944,
      "underrated": 4945,
      "amateurish": 4946,
      "propag": 4947,
      "Rod": 4948,
      "UT": 4949,
      "ilty": 4950,
      "believes": 4951,
      "popul": 4952,
      "Plus": 4953,
      "Nich": 4954,
      "produce": 4955,
      "harsh": 4956,
      "service": 4957,
      "Larry": 4958,
      "BI": 4959,
      "Fest": 4960,
      "Take": 4961,
      "Wars": 4962,
      "offensive": 4963,
      "faced": 4964,
      "osexual": 4965,
      "LI": 4966,
      "Lin": 4967,
      "skill": 4968,
      "scale": 4969,
      "angles": 4970,
      "Albert": 4971,
      "visible": 4972,
      "village": 4973,
      "Eliza": 4974,
      "Mir": 4975,
      "cel": 4976,
      "rep": 4977,
      "talks": 4978,
      "claims": 4979,
      "rescue": 4980,
      "Full": 4981,
      "sedu": 4982,
      "ww": 4983,
      "guest": 4984,
      "colour": 4985,
      "treatment": 4986,
      "17": 4987,
      "Back": 4988,
      "Kate": 4989,
      "bra": 4990,
      "thoughts": 4991,
      "handsome": 4992,
      "majority": 4993,
      "IGH": 4994,
      "authentic": 4995,
      "Cas": 4996,
      "Fre": 4997,
      "Sw": 4998,
      "inated": 4999
    },
    "merges": [
      [
        "t",
        "h"
      ],
      [
        "i",
        "n"
      ],
      [
        "e",
        "r"
      ],
      [
        "a",
        "n"
      ],
      [
        "th",
        "e"
      ],
      [
        "i",
        "s"
      ],
      [
        "r",
        "e"
      ],
      [
        "o",
        "n"
      ],
      [
        "e",
        "n"
      ],
      [
        "a",
        "t"
      ],
      [
        "t",
        "o"
      ],
      [
        "o",
        "u"
      ],
      [
        "in",
        "g"
      ],
      [
        "e",
        "s"
      ],
      [
        "a",
        "l"
      ],
      [
        "a",
        "s"
      ],
      [
        "an",
        "d"
      ],
      [
        "o",
        "r"
      ],
      [
        "i",
        "t"
      ],
      [
        "o",
        "f"
      ],
      [
        "a",
        "r"
      ],
      [
        "e",
        "d"
      ],
      [
        "i",
        "l"
      ],
      [
        "s",
        "t"
      ],
      [
        "l",
        "y"
      ],
      [
        "b",
        "r"
      ],
      [
        "h",
        "e"
      ],
      [
        "o",
        "m"
      ],
      [
        "l",
        "e"
      ],
      [
        "s",
        "e"
      ],
      [
        "c",
        "h"
      ],
      [
        "/",
        ">"
      ],
      [
        "m",
        "o"
      ],
      [
        "a",
        "c"
      ],
      [
        "b",
        "e"
      ],
      [
        "i",
        "c"
      ],
      [
        "w",
        "h"
      ],
      [
        "v",
        "e"
      ],
      [
        "i",
        "e"
      ],
      [
        "a",
        "d"
      ],
      [
        "th",
        "at"
      ],
      [
        "o",
        "w"
      ],
      [
        "o",
        "t"
      ],
      [
        "u",
        "t"
      ],
      [
        "v",
        "er"
      ],
      [
        "en",
        "t"
      ],
      [
        "th",
        "is"
      ],
      [
        "i",
        "on"
      ],
      [
        "f",
        "or"
      ],
      [
        "i",
        "m"
      ],
      [
        "a",
        "y"
      ],
      [
        "t",
        "er"
      ],
      [
        "g",
        "h"
      ],
      [
        "l",
        "i"
      ],
      [
        "a",
        "m"
      ],
      [
        "mo",
        "v"
      ],
      [
        "i",
        "d"
      ],
      [
        "w",
        "as"
      ],
      [
        "i",
        "th"
      ],
      [
        "/>",
        "<"
      ],
      [
        "f",
        "il"
      ],
      [
        "u",
        "n"
      ],
      [
        "T",
        "he"
      ],
      [
        "fil",
        "m"
      ],
      [
        "e",
        "l"
      ],
      [
        "er",
        "e"
      ],
      [
        "k",
        "e"
      ],
      [
        "w",
        "ith"
      ],
      [
        "o",
        "o"
      ],
      [
        "a",
        "b"
      ],
      [
        "l",
        "d"
      ],
      [
        "h",
        "is"
      ],
      [
        "a",
        "re"
      ],
      [
        "mov",
        "ie"
      ],
      [
        "on",
        "e"
      ],
      [
        "i",
        "r"
      ],
      [
        "h",
        "a"
      ],
      [
        "ou",
        "t"
      ],
      [
        "y",
        "ou"
      ],
      [
        "g",
        "e"
      ],
      [
        "r",
        "i"
      ],
      [
        "s",
        "u"
      ],
      [
        ".",
        "<"
      ],
      [
        "r",
        "o"
      ],
      [
        "s",
        "h"
      ],
      [
        "p",
        "e"
      ],
      [
        "al",
        "l"
      ],
      [
        "c",
        "e"
      ],
      [
        "b",
        "ut"
      ],
      [
        "s",
        "o"
      ],
      [
        "om",
        "e"
      ],
      [
        "u",
        "l"
      ],
      [
        "p",
        "l"
      ],
      [
        "d",
        "e"
      ],
      [
        "al",
        "ly"
      ],
      [
        "n",
        "ot"
      ],
      [
        "to",
        "r"
      ],
      [
        "f",
        "e"
      ],
      [
        "th",
        "er"
      ],
      [
        "c",
        "t"
      ],
      [
        "n",
        "e"
      ],
      [
        "il",
        "l"
      ],
      [
        "c",
        "om"
      ],
      [
        "t",
        "r"
      ],
      [
        "s",
        "c"
      ],
      [
        "m",
        "a"
      ],
      [
        "u",
        "r"
      ],
      [
        ".",
        "."
      ],
      [
        "ou",
        "ld"
      ],
      [
        "ac",
        "t"
      ],
      [
        "a",
        "p"
      ],
      [
        "ha",
        "ve"
      ],
      [
        "e",
        "x"
      ],
      [
        "m",
        "an"
      ],
      [
        "gh",
        "t"
      ],
      [
        "u",
        "st"
      ],
      [
        "d",
        "o"
      ],
      [
        "l",
        "o"
      ],
      [
        "m",
        "e"
      ],
      [
        "u",
        "s"
      ],
      [
        "p",
        "o"
      ],
      [
        "es",
        "t"
      ],
      [
        "d",
        "i"
      ],
      [
        "s",
        "ome"
      ],
      [
        "wh",
        "o"
      ],
      [
        "en",
        "d"
      ],
      [
        "p",
        "er"
      ],
      [
        "es",
        "s"
      ],
      [
        "r",
        "om"
      ],
      [
        "n",
        "o"
      ],
      [
        "ver",
        "y"
      ],
      [
        "c",
        "on"
      ],
      [
        "b",
        "y"
      ],
      [
        "an",
        "t"
      ],
      [
        "a",
        "in"
      ],
      [
        "th",
        "ing"
      ],
      [
        "n",
        "d"
      ],
      [
        "h",
        "er"
      ],
      [
        "ar",
        "t"
      ],
      [
        "oo",
        "d"
      ],
      [
        "a",
        "u"
      ],
      [
        "a",
        "g"
      ],
      [
        "el",
        "l"
      ],
      [
        "w",
        "or"
      ],
      [
        "se",
        "e"
      ],
      [
        "li",
        "ke"
      ],
      [
        "o",
        "l"
      ],
      [
        "u",
        "p"
      ],
      [
        "ou",
        "s"
      ],
      [
        "p",
        "le"
      ],
      [
        "I",
        "t"
      ],
      [
        "t",
        "im"
      ],
      [
        "t",
        "e"
      ],
      [
        "the",
        "y"
      ],
      [
        "f",
        "rom"
      ],
      [
        "i",
        "f"
      ],
      [
        "v",
        "en"
      ],
      [
        "w",
        "e"
      ],
      [
        "i",
        "es"
      ],
      [
        "p",
        "re"
      ],
      [
        "q",
        "u"
      ],
      [
        "as",
        "t"
      ],
      [
        "at",
        "ion"
      ],
      [
        "ac",
        "k"
      ],
      [
        "ge",
        "t"
      ],
      [
        "at",
        "e"
      ],
      [
        "p",
        "ro"
      ],
      [
        "ou",
        "gh"
      ],
      [
        "is",
        "t"
      ],
      [
        "h",
        "as"
      ],
      [
        "in",
        "d"
      ],
      [
        "j",
        "ust"
      ],
      [
        "er",
        "s"
      ],
      [
        "ch",
        "ar"
      ],
      [
        "ab",
        "out"
      ],
      [
        "w",
        "ay"
      ],
      [
        "o",
        "ther"
      ],
      [
        "at",
        "ch"
      ],
      [
        "c",
        "an"
      ],
      [
        "i",
        "g"
      ],
      [
        "i",
        "ve"
      ],
      [
        "an",
        "y"
      ],
      [
        "g",
        "o"
      ],
      [
        "m",
        "y"
      ],
      [
        "ar",
        "d"
      ],
      [
        "m",
        "ent"
      ],
      [
        "oo",
        "k"
      ],
      [
        "T",
        "his"
      ],
      [
        "ac",
        "ter"
      ],
      [
        "g",
        "ood"
      ],
      [
        "T",
        "h"
      ],
      [
        "mo",
        "re"
      ],
      [
        "u",
        "re"
      ],
      [
        "char",
        "acter"
      ],
      [
        "tor",
        "y"
      ],
      [
        "d",
        "er"
      ],
      [
        "in",
        "e"
      ],
      [
        "wh",
        "at"
      ],
      [
        "re",
        "at"
      ],
      [
        "b",
        "o"
      ],
      [
        "on",
        "g"
      ],
      [
        "i",
        "ch"
      ],
      [
        "w",
        "atch"
      ],
      [
        "ab",
        "le"
      ],
      [
        "n",
        "ow"
      ],
      [
        "s",
        "s"
      ],
      [
        "w",
        "ould"
      ],
      [
        "g",
        "r"
      ],
      [
        "it",
        "y"
      ],
      [
        "th",
        "ere"
      ],
      [
        "ou",
        "nd"
      ],
      [
        "tim",
        "e"
      ],
      [
        "in",
        "t"
      ],
      [
        "ou",
        "r"
      ],
      [
        "it",
        "e"
      ],
      [
        "am",
        "e"
      ],
      [
        "a",
        "k"
      ],
      [
        "u",
        "m"
      ],
      [
        "c",
        "k"
      ],
      [
        "s",
        "tory"
      ],
      [
        "e",
        "t"
      ],
      [
        "f",
        "ul"
      ],
      [
        "p",
        "t"
      ],
      [
        "i",
        "ght"
      ],
      [
        "s",
        "p"
      ],
      [
        "mo",
        "st"
      ],
      [
        "a",
        "w"
      ],
      [
        "wh",
        "en"
      ],
      [
        "g",
        "u"
      ],
      [
        "id",
        "e"
      ],
      [
        "o",
        "ver"
      ],
      [
        "s",
        "he"
      ],
      [
        "e",
        "ven"
      ],
      [
        "sc",
        "en"
      ],
      [
        "wh",
        "ich"
      ],
      [
        "ow",
        "n"
      ],
      [
        "h",
        "ad"
      ],
      [
        "u",
        "ch"
      ],
      [
        "re",
        "ally"
      ],
      [
        "on",
        "ly"
      ],
      [
        "b",
        "le"
      ],
      [
        "the",
        "ir"
      ],
      [
        "h",
        "im"
      ],
      [
        "t",
        "y"
      ],
      [
        "W",
        "h"
      ],
      [
        "e",
        "ver"
      ],
      [
        "th",
        "an"
      ],
      [
        "be",
        "c"
      ],
      [
        "w",
        "ere"
      ],
      [
        "in",
        "k"
      ],
      [
        "a",
        "v"
      ],
      [
        "pl",
        "ay"
      ],
      [
        "it",
        "s"
      ],
      [
        "c",
        "l"
      ],
      [
        "i",
        "ous"
      ],
      [
        "e",
        "ar"
      ],
      [
        "se",
        "l"
      ],
      [
        "ad",
        "e"
      ],
      [
        "h",
        "ow"
      ],
      [
        "ic",
        "k"
      ],
      [
        "d",
        "id"
      ],
      [
        "b",
        "l"
      ],
      [
        "e",
        "p"
      ],
      [
        "sh",
        "ow"
      ],
      [
        "o",
        "p"
      ],
      [
        "a",
        "f"
      ],
      [
        "do",
        "es"
      ],
      [
        "it",
        "t"
      ],
      [
        "c",
        "r"
      ],
      [
        "o",
        "re"
      ],
      [
        "l",
        "ook"
      ],
      [
        "is",
        "h"
      ],
      [
        "o",
        "b"
      ],
      [
        "a",
        "ge"
      ],
      [
        "en",
        "ce"
      ],
      [
        "as",
        "s"
      ],
      [
        "c",
        "i"
      ],
      [
        "the",
        "m"
      ],
      [
        "or",
        "t"
      ],
      [
        "au",
        "se"
      ],
      [
        "of",
        "f"
      ],
      [
        "l",
        "l"
      ],
      [
        "g",
        "reat"
      ],
      [
        "b",
        "ad"
      ],
      [
        "..",
        "."
      ],
      [
        "ic",
        "e"
      ],
      [
        "w",
        "ell"
      ],
      [
        "m",
        "uch"
      ],
      [
        "be",
        "t"
      ],
      [
        "k",
        "now"
      ],
      [
        "w",
        "ill"
      ],
      [
        "c",
        "ould"
      ],
      [
        "be",
        "en"
      ],
      [
        "p",
        "r"
      ],
      [
        "I",
        "n"
      ],
      [
        "o",
        "ple"
      ],
      [
        "to",
        "o"
      ],
      [
        "i",
        "re"
      ],
      [
        "u",
        "d"
      ],
      [
        "ir",
        "st"
      ],
      [
        "d",
        "is"
      ],
      [
        "th",
        "r"
      ],
      [
        "in",
        "to"
      ],
      [
        "re",
        "al"
      ],
      [
        "p",
        "p"
      ],
      [
        "t",
        "w"
      ],
      [
        "ma",
        "k"
      ],
      [
        "pe",
        "ople"
      ],
      [
        "p",
        "art"
      ],
      [
        "th",
        "ink"
      ],
      [
        "v",
        "es"
      ],
      [
        "ma",
        "ke"
      ],
      [
        "f",
        "f"
      ],
      [
        "di",
        "re"
      ],
      [
        "w",
        "r"
      ],
      [
        "f",
        "un"
      ],
      [
        "bec",
        "ause"
      ],
      [
        "d",
        "on"
      ],
      [
        "e",
        "very"
      ],
      [
        "er",
        "t"
      ],
      [
        "s",
        "on"
      ],
      [
        "m",
        "ade"
      ],
      [
        "ac",
        "e"
      ],
      [
        "o",
        "ld"
      ],
      [
        "f",
        "irst"
      ],
      [
        "wor",
        "k"
      ],
      [
        "sel",
        "f"
      ],
      [
        "v",
        "ie"
      ],
      [
        "A",
        "nd"
      ],
      [
        "s",
        "er"
      ],
      [
        "n",
        "y"
      ],
      [
        "il",
        "e"
      ],
      [
        "al",
        "so"
      ],
      [
        "wh",
        "ere"
      ],
      [
        "in",
        "ter"
      ],
      [
        "n",
        "t"
      ],
      [
        "d",
        "u"
      ],
      [
        "s",
        "ay"
      ],
      [
        "mov",
        "ies"
      ],
      [
        "c",
        "re"
      ],
      [
        "see",
        "m"
      ],
      [
        "r",
        "a"
      ],
      [
        "B",
        "ut"
      ],
      [
        "at",
        "ed"
      ],
      [
        "ar",
        "y"
      ],
      [
        "s",
        "pe"
      ],
      [
        "j",
        "o"
      ],
      [
        "f",
        "a"
      ],
      [
        "ic",
        "al"
      ],
      [
        "l",
        "ow"
      ],
      [
        "character",
        "s"
      ],
      [
        "d",
        "r"
      ],
      [
        "d",
        "es"
      ],
      [
        "pl",
        "ot"
      ],
      [
        "ac",
        "tor"
      ],
      [
        "vie",
        "w"
      ],
      [
        "a",
        "ch"
      ],
      [
        "an",
        "s"
      ],
      [
        "C",
        "h"
      ],
      [
        "fe",
        "ct"
      ],
      [
        "film",
        "s"
      ],
      [
        "l",
        "ess"
      ],
      [
        "b",
        "ack"
      ],
      [
        "se",
        "en"
      ],
      [
        "m",
        "er"
      ],
      [
        "the",
        "n"
      ],
      [
        "n",
        "g"
      ],
      [
        "f",
        "l"
      ],
      [
        "H",
        "e"
      ],
      [
        "an",
        "ce"
      ],
      [
        "po",
        "int"
      ],
      [
        "you",
        "r"
      ],
      [
        "act",
        "ing"
      ],
      [
        "w",
        "ant"
      ],
      [
        "man",
        "y"
      ],
      [
        "y",
        "ear"
      ],
      [
        "p",
        "s"
      ],
      [
        "m",
        "in"
      ],
      [
        "be",
        "ing"
      ],
      [
        "th",
        "ough"
      ],
      [
        "lo",
        "ve"
      ],
      [
        "v",
        "ing"
      ],
      [
        "af",
        "ter"
      ],
      [
        "c",
        "tor"
      ],
      [
        "c",
        "es"
      ],
      [
        "li",
        "fe"
      ],
      [
        "an",
        "g"
      ],
      [
        ")",
        ","
      ],
      [
        "c",
        "o"
      ],
      [
        "tw",
        "o"
      ],
      [
        "h",
        "or"
      ],
      [
        "f",
        "in"
      ],
      [
        "itt",
        "le"
      ],
      [
        "ic",
        "t"
      ],
      [
        "ne",
        "ver"
      ],
      [
        "Th",
        "ere"
      ],
      [
        "i",
        "z"
      ],
      [
        ")",
        "."
      ],
      [
        "st",
        "r"
      ],
      [
        "b",
        "er"
      ],
      [
        "en",
        "s"
      ],
      [
        "ct",
        "ion"
      ],
      [
        "ur",
        "n"
      ],
      [
        "d",
        "ay"
      ],
      [
        "thr",
        "ough"
      ],
      [
        "tr",
        "y"
      ],
      [
        "be",
        "l"
      ],
      [
        "1",
        "9"
      ],
      [
        "b",
        "est"
      ],
      [
        "o",
        "se"
      ],
      [
        "t",
        "al"
      ],
      [
        "u",
        "ally"
      ],
      [
        "l",
        "ittle"
      ],
      [
        "u",
        "e"
      ],
      [
        "v",
        "ed"
      ],
      [
        "f",
        "ore"
      ],
      [
        "c",
        "ent"
      ],
      [
        "-",
        "-"
      ],
      [
        "t",
        "a"
      ],
      [
        "h",
        "ere"
      ],
      [
        "il",
        "y"
      ],
      [
        "bet",
        "ter"
      ],
      [
        "ar",
        "k"
      ],
      [
        "is",
        "e"
      ],
      [
        "a",
        "ve"
      ],
      [
        "scen",
        "e"
      ],
      [
        "t",
        "ing"
      ],
      [
        "I",
        "f"
      ],
      [
        "!",
        "!"
      ],
      [
        "k",
        "ill"
      ],
      [
        "au",
        "gh"
      ],
      [
        "m",
        "at"
      ],
      [
        "f",
        "ri"
      ],
      [
        "g",
        "i"
      ],
      [
        "ou",
        "ght"
      ],
      [
        "r",
        "y"
      ],
      [
        "p",
        "h"
      ],
      [
        "il",
        "d"
      ],
      [
        "f",
        "ind"
      ],
      [
        "un",
        "der"
      ],
      [
        "per",
        "for"
      ],
      [
        "su",
        "r"
      ],
      [
        "sh",
        "ould"
      ],
      [
        "o",
        "d"
      ],
      [
        "e",
        "f"
      ],
      [
        "i",
        "gh"
      ],
      [
        "w",
        "on"
      ],
      [
        "scen",
        "es"
      ],
      [
        "fe",
        "el"
      ],
      [
        "as",
        "e"
      ],
      [
        "e",
        "v"
      ],
      [
        "ert",
        "ain"
      ],
      [
        "re",
        "ad"
      ],
      [
        "1",
        "0"
      ],
      [
        "A",
        "l"
      ],
      [
        "re",
        "e"
      ],
      [
        "ag",
        "ain"
      ],
      [
        "st",
        "and"
      ],
      [
        "inter",
        "est"
      ],
      [
        "c",
        "ast"
      ],
      [
        "se",
        "t"
      ],
      [
        "c",
        "he"
      ],
      [
        "l",
        "ot"
      ],
      [
        "st",
        "ill"
      ],
      [
        "a",
        "th"
      ],
      [
        "i",
        "an"
      ],
      [
        "fri",
        "end"
      ],
      [
        "some",
        "thing"
      ],
      [
        "g",
        "en"
      ],
      [
        "ar",
        "s"
      ],
      [
        "c",
        "ou"
      ],
      [
        "ha",
        "pp"
      ],
      [
        "su",
        "ch"
      ],
      [
        "ir",
        "l"
      ],
      [
        "bel",
        "ie"
      ],
      [
        "m",
        "ay"
      ],
      [
        "ion",
        "s"
      ],
      [
        "n",
        "ing"
      ],
      [
        "ab",
        "ly"
      ],
      [
        "en",
        "se"
      ],
      [
        "t",
        "urn"
      ],
      [
        "r",
        "or"
      ],
      [
        "in",
        "s"
      ],
      [
        "at",
        "ing"
      ],
      [
        "the",
        "se"
      ],
      [
        "e",
        "m"
      ],
      [
        "ne",
        "w"
      ],
      [
        "ver",
        "s"
      ],
      [
        "as",
        "on"
      ],
      [
        "con",
        "t"
      ],
      [
        "i",
        "p"
      ],
      [
        "jo",
        "y"
      ],
      [
        "f",
        "am"
      ],
      [
        "m",
        "is"
      ],
      [
        "fun",
        "ny"
      ],
      [
        "d",
        "own"
      ],
      [
        "im",
        "p"
      ],
      [
        "perfor",
        "man"
      ],
      [
        "sc",
        "re"
      ],
      [
        "actor",
        "s"
      ],
      [
        "a",
        "z"
      ],
      [
        "g",
        "ot"
      ],
      [
        "pre",
        "t"
      ],
      [
        "dire",
        "ctor"
      ],
      [
        "S",
        "t"
      ],
      [
        "com",
        "m"
      ],
      [
        "J",
        "o"
      ],
      [
        "s",
        "to"
      ],
      [
        "at",
        "t"
      ],
      [
        "th",
        "ose"
      ],
      [
        "wh",
        "ile"
      ],
      [
        "ent",
        "s"
      ],
      [
        "w",
        "om"
      ],
      [
        "does",
        "n"
      ],
      [
        "g",
        "irl"
      ],
      [
        "m",
        "us"
      ],
      [
        "watch",
        "ing"
      ],
      [
        "d",
        "y"
      ],
      [
        "gu",
        "y"
      ],
      [
        "me",
        "m"
      ],
      [
        "l",
        "es"
      ],
      [
        "did",
        "n"
      ],
      [
        "t",
        "ak"
      ],
      [
        "in",
        "al"
      ],
      [
        "as",
        "h"
      ],
      [
        "po",
        "s"
      ],
      [
        "year",
        "s"
      ],
      [
        "tim",
        "es"
      ],
      [
        "i",
        "al"
      ],
      [
        "at",
        "er"
      ],
      [
        "mak",
        "es"
      ],
      [
        "way",
        "s"
      ],
      [
        "pe",
        "ct"
      ],
      [
        "com",
        "ed"
      ],
      [
        "go",
        "ing"
      ],
      [
        "en",
        "joy"
      ],
      [
        "st",
        "art"
      ],
      [
        "ri",
        "ght"
      ],
      [
        "ul",
        "t"
      ],
      [
        "u",
        "al"
      ],
      [
        "B",
        "r"
      ],
      [
        "b",
        "it"
      ],
      [
        "pro",
        "du"
      ],
      [
        "l",
        "ong"
      ],
      [
        "p",
        "ut"
      ],
      [
        "act",
        "ually"
      ],
      [
        "be",
        "fore"
      ],
      [
        "b",
        "ig"
      ],
      [
        "s",
        "ame"
      ],
      [
        "li",
        "ght"
      ],
      [
        "A",
        "s"
      ],
      [
        "fe",
        "w"
      ],
      [
        "c",
        "ar"
      ],
      [
        "re",
        "d"
      ],
      [
        "l",
        "augh"
      ],
      [
        "act",
        "ion"
      ],
      [
        "oo",
        "l"
      ],
      [
        "le",
        "t"
      ],
      [
        "wh",
        "y"
      ],
      [
        "he",
        "l"
      ],
      [
        "di",
        "ff"
      ],
      [
        "h",
        "o"
      ],
      [
        "t",
        "ri"
      ],
      [
        "or",
        "ig"
      ],
      [
        "re",
        "l"
      ],
      [
        "su",
        "b"
      ],
      [
        "th",
        "ought"
      ],
      [
        "you",
        "ng"
      ],
      [
        "m",
        "on"
      ],
      [
        "v",
        "i"
      ],
      [
        "*",
        "*"
      ],
      [
        "ex",
        "c"
      ],
      [
        "f",
        "act"
      ],
      [
        "ut",
        "e"
      ],
      [
        "st",
        "e"
      ],
      [
        "v",
        "is"
      ],
      [
        "Y",
        "ou"
      ],
      [
        "com",
        "es"
      ],
      [
        "no",
        "thing"
      ],
      [
        "an",
        "other"
      ],
      [
        "ap",
        "pe"
      ],
      [
        "ri",
        "pt"
      ],
      [
        "com",
        "ple"
      ],
      [
        "scre",
        "en"
      ],
      [
        "h",
        "igh"
      ],
      [
        "ing",
        "s"
      ],
      [
        "re",
        "n"
      ],
      [
        "b",
        "u"
      ],
      [
        "c",
        "le"
      ],
      [
        "s",
        "a"
      ],
      [
        "ef",
        "fect"
      ],
      [
        "ce",
        "pt"
      ],
      [
        "re",
        "ss"
      ],
      [
        "h",
        "u"
      ],
      [
        "ar",
        "ound"
      ],
      [
        "n",
        "er"
      ],
      [
        "c",
        "ome"
      ],
      [
        "a",
        "ut"
      ],
      [
        "qu",
        "ite"
      ],
      [
        "ar",
        "r"
      ],
      [
        "H",
        "ow"
      ],
      [
        "it",
        "ing"
      ],
      [
        "thing",
        "s"
      ],
      [
        "wor",
        "ld"
      ],
      [
        "seem",
        "s"
      ],
      [
        "pret",
        "ty"
      ],
      [
        "s",
        "m"
      ],
      [
        "ci",
        "al"
      ],
      [
        "p",
        "or"
      ],
      [
        "in",
        "v"
      ],
      [
        "h",
        "ard"
      ],
      [
        "for",
        "t"
      ],
      [
        "m",
        "ind"
      ],
      [
        "per",
        "son"
      ],
      [
        "hor",
        "ror"
      ],
      [
        "orig",
        "inal"
      ],
      [
        "st",
        "er"
      ],
      [
        "s",
        "ing"
      ],
      [
        "f",
        "r"
      ],
      [
        "S",
        "o"
      ],
      [
        "ne",
        "ed"
      ],
      [
        "t",
        "en"
      ],
      [
        "in",
        "ce"
      ],
      [
        "en",
        "ough"
      ],
      [
        "sc",
        "ript"
      ],
      [
        "k",
        "ind"
      ],
      [
        "f",
        "ar"
      ],
      [
        "mer",
        "ic"
      ],
      [
        "A",
        "meric"
      ],
      [
        "ic",
        "ally"
      ],
      [
        "i",
        "a"
      ],
      [
        "k",
        "id"
      ],
      [
        "t",
        "ell"
      ],
      [
        "we",
        "en"
      ],
      [
        "com",
        "p"
      ],
      [
        "n",
        "ess"
      ],
      [
        "g",
        "ive"
      ],
      [
        "ma",
        "in"
      ],
      [
        "ta",
        "ke"
      ],
      [
        "be",
        "g"
      ],
      [
        "get",
        "s"
      ],
      [
        "ation",
        "s"
      ],
      [
        "Wh",
        "at"
      ],
      [
        "won",
        "der"
      ],
      [
        "b",
        "or"
      ],
      [
        "w",
        "ard"
      ],
      [
        "o",
        "c"
      ],
      [
        "c",
        "or"
      ],
      [
        "u",
        "g"
      ],
      [
        "S",
        "he"
      ],
      [
        "us",
        "ed"
      ],
      [
        "ate",
        "ly"
      ],
      [
        "The",
        "y"
      ],
      [
        "ex",
        "pect"
      ],
      [
        "bet",
        "ween"
      ],
      [
        "ve",
        "l"
      ],
      [
        "m",
        "ust"
      ],
      [
        "wor",
        "th"
      ],
      [
        "k",
        "ing"
      ],
      [
        "pre",
        "ss"
      ],
      [
        "interest",
        "ing"
      ],
      [
        "mus",
        "ic"
      ],
      [
        "ul",
        "ar"
      ],
      [
        "s",
        "aw"
      ],
      [
        "se",
        "x"
      ],
      [
        "d",
        "one"
      ],
      [
        "c",
        "are"
      ],
      [
        "c",
        "ed"
      ],
      [
        "ser",
        "ies"
      ],
      [
        "c",
        "our"
      ],
      [
        "le",
        "ad"
      ],
      [
        "w",
        "ar"
      ],
      [
        "cl",
        "ass"
      ],
      [
        "h",
        "and"
      ],
      [
        "re",
        "ason"
      ],
      [
        "k",
        "s"
      ],
      [
        "ro",
        "le"
      ],
      [
        "v",
        "ious"
      ],
      [
        "c",
        "all"
      ],
      [
        "comed",
        "y"
      ],
      [
        "gr",
        "ap"
      ],
      [
        "c",
        "ess"
      ],
      [
        "\"",
        ","
      ],
      [
        "ex",
        "pl"
      ],
      [
        "ch",
        "ild"
      ],
      [
        "is",
        "n"
      ],
      [
        "end",
        "ing"
      ],
      [
        "m",
        "om"
      ],
      [
        "w",
        "ood"
      ],
      [
        "al",
        "ways"
      ],
      [
        "se",
        "qu"
      ],
      [
        "l",
        "ed"
      ],
      [
        "sh",
        "ot"
      ],
      [
        "e",
        "y"
      ],
      [
        "ut",
        "es"
      ],
      [
        "who",
        "le"
      ],
      [
        "m",
        "ed"
      ],
      [
        "le",
        "ast"
      ],
      [
        "u",
        "se"
      ],
      [
        "l",
        "ine"
      ],
      [
        "un",
        "t"
      ],
      [
        "su",
        "re"
      ],
      [
        "as",
        "ed"
      ],
      [
        "s",
        "ound"
      ],
      [
        "bo",
        "th"
      ],
      [
        "il",
        "li"
      ],
      [
        "D",
        "e"
      ],
      [
        "j",
        "e"
      ],
      [
        "h",
        "y"
      ],
      [
        "c",
        "am"
      ],
      [
        "be",
        "aut"
      ],
      [
        "diff",
        "er"
      ],
      [
        "with",
        "out"
      ],
      [
        "tr",
        "u"
      ],
      [
        "he",
        "ad"
      ],
      [
        "ap",
        "p"
      ],
      [
        "al",
        "most"
      ],
      [
        "F",
        "or"
      ],
      [
        "m",
        "ight"
      ],
      [
        "T",
        "V"
      ],
      [
        "c",
        "ine"
      ],
      [
        "c",
        "ol"
      ],
      [
        "al",
        "e"
      ],
      [
        "p",
        "ie"
      ],
      [
        "mak",
        "ing"
      ],
      [
        "o",
        "s"
      ],
      [
        "mo",
        "t"
      ],
      [
        "comple",
        "te"
      ],
      [
        "min",
        "utes"
      ],
      [
        "b",
        "ook"
      ],
      [
        "al",
        "o"
      ],
      [
        "ad",
        "d"
      ],
      [
        "l",
        "and"
      ],
      [
        "ri",
        "ble"
      ],
      [
        "0",
        "0"
      ],
      [
        "a",
        "way"
      ],
      [
        "bo",
        "y"
      ],
      [
        "h",
        "n"
      ],
      [
        "T",
        "H"
      ],
      [
        "au",
        "di"
      ],
      [
        "te",
        "m"
      ],
      [
        "l",
        "ast"
      ],
      [
        "b",
        "ably"
      ],
      [
        "A",
        "n"
      ],
      [
        "i",
        "ble"
      ],
      [
        "c",
        "lo"
      ],
      [
        "ou",
        "se"
      ],
      [
        "any",
        "thing"
      ],
      [
        "de",
        "c"
      ],
      [
        "r",
        "un"
      ],
      [
        "ur",
        "ing"
      ],
      [
        "at",
        "ure"
      ],
      [
        "performan",
        "ce"
      ],
      [
        "in",
        "es"
      ],
      [
        "fam",
        "ily"
      ],
      [
        "con",
        "d"
      ],
      [
        "per",
        "i"
      ],
      [
        "m",
        "s"
      ],
      [
        "r",
        "an"
      ],
      [
        "if",
        "ul"
      ],
      [
        "m",
        "ar"
      ],
      [
        "so",
        "l"
      ],
      [
        "f",
        "ound"
      ],
      [
        "f",
        "ol"
      ],
      [
        "ent",
        "ertain"
      ],
      [
        "ig",
        "n"
      ],
      [
        "B",
        "e"
      ],
      [
        "s",
        "ent"
      ],
      [
        "ion",
        "al"
      ],
      [
        "play",
        "ed"
      ],
      [
        "\"",
        "."
      ],
      [
        "i",
        "fe"
      ],
      [
        "s",
        "id"
      ],
      [
        "ex",
        "t"
      ],
      [
        "l",
        "ack"
      ],
      [
        "wom",
        "an"
      ],
      [
        "N",
        "o"
      ],
      [
        "ci",
        "ally"
      ],
      [
        "es",
        "pe"
      ],
      [
        "Th",
        "at"
      ],
      [
        "Jo",
        "hn"
      ],
      [
        "v",
        "al"
      ],
      [
        "pro",
        "bably"
      ],
      [
        "dr",
        "am"
      ],
      [
        "k",
        "ed"
      ],
      [
        "er",
        "a"
      ],
      [
        "po",
        "ss"
      ],
      [
        "t",
        "ed"
      ],
      [
        "an",
        "e"
      ],
      [
        "pr",
        "is"
      ],
      [
        "s",
        "y"
      ],
      [
        "one",
        "y"
      ],
      [
        "st",
        "u"
      ],
      [
        "re",
        "st"
      ],
      [
        "m",
        "en"
      ],
      [
        "di",
        "alo"
      ],
      [
        "as",
        "ter"
      ],
      [
        "pl",
        "ace"
      ],
      [
        "to",
        "p"
      ],
      [
        "o",
        "ot"
      ],
      [
        "me",
        "an"
      ],
      [
        "D",
        "V"
      ],
      [
        "E",
        "R"
      ],
      [
        "po",
        "l"
      ],
      [
        "s",
        "ince"
      ],
      [
        "ment",
        "s"
      ],
      [
        "c",
        "ap"
      ],
      [
        "s",
        "ense"
      ],
      [
        "W",
        "e"
      ],
      [
        "y",
        "ing"
      ],
      [
        "t",
        "it"
      ],
      [
        "ra",
        "ther"
      ],
      [
        "n",
        "ight"
      ],
      [
        "h",
        "um"
      ],
      [
        "g",
        "l"
      ],
      [
        "DV",
        "D"
      ],
      [
        "at",
        "ive"
      ],
      [
        "n",
        "a"
      ],
      [
        "e",
        "ach"
      ],
      [
        "is",
        "o"
      ],
      [
        "wor",
        "st"
      ],
      [
        "A",
        "ll"
      ],
      [
        "Wh",
        "en"
      ],
      [
        ".",
        "\""
      ],
      [
        "po",
        "or"
      ],
      [
        "f",
        "t"
      ],
      [
        "cour",
        "se"
      ],
      [
        "bo",
        "dy"
      ],
      [
        "differ",
        "ent"
      ],
      [
        "look",
        "ing"
      ],
      [
        "H",
        "ol"
      ],
      [
        "M",
        "y"
      ],
      [
        "happ",
        "en"
      ],
      [
        "a",
        "ir"
      ],
      [
        "s",
        "im"
      ],
      [
        "ke",
        "ep"
      ],
      [
        "belie",
        "ve"
      ],
      [
        "s",
        "ide"
      ],
      [
        "any",
        "one"
      ],
      [
        "c",
        "ut"
      ],
      [
        "L",
        "e"
      ],
      [
        "p",
        "ict"
      ],
      [
        "try",
        "ing"
      ],
      [
        "on",
        "d"
      ],
      [
        "al",
        "f"
      ],
      [
        "beaut",
        "iful"
      ],
      [
        "ist",
        "ic"
      ],
      [
        "ep",
        "iso"
      ],
      [
        "b",
        "re"
      ],
      [
        "comm",
        "end"
      ],
      [
        "spe",
        "ct"
      ],
      [
        "dire",
        "ct"
      ],
      [
        "hel",
        "p"
      ],
      [
        "S",
        "e"
      ],
      [
        "R",
        "e"
      ],
      [
        "v",
        "o"
      ],
      [
        "ith",
        "er"
      ],
      [
        "ing",
        "ly"
      ],
      [
        "b",
        "ud"
      ],
      [
        "j",
        "ob"
      ],
      [
        "ge",
        "ther"
      ],
      [
        "per",
        "fect"
      ],
      [
        "je",
        "ct"
      ],
      [
        "go",
        "es"
      ],
      [
        "mem",
        "ber"
      ],
      [
        "y",
        "et"
      ],
      [
        "f",
        "an"
      ],
      [
        "c",
        "reat"
      ],
      [
        "play",
        "s"
      ],
      [
        "il",
        "ar"
      ],
      [
        "show",
        "s"
      ],
      [
        "O",
        "ne"
      ],
      [
        "an",
        "ge"
      ],
      [
        "M",
        "o"
      ],
      [
        "s",
        "l"
      ],
      [
        "espe",
        "cially"
      ],
      [
        "to",
        "gether"
      ],
      [
        "r",
        "u"
      ],
      [
        "Americ",
        "an"
      ],
      [
        "Ch",
        "r"
      ],
      [
        "ful",
        "ly"
      ],
      [
        "it",
        "er"
      ],
      [
        "sh",
        "ort"
      ],
      [
        "ste",
        "ad"
      ],
      [
        "s",
        "ch"
      ],
      [
        "pro",
        "ble"
      ],
      [
        "ic",
        "s"
      ],
      [
        "ne",
        "y"
      ],
      [
        "su",
        "p"
      ],
      [
        "h",
        "alf"
      ],
      [
        "hu",
        "man"
      ],
      [
        "pos",
        "ed"
      ],
      [
        "ul",
        "l"
      ],
      [
        "c",
        "ertain"
      ],
      [
        "s",
        "it"
      ],
      [
        "watch",
        "ed"
      ],
      [
        "effect",
        "s"
      ],
      [
        "U",
        "n"
      ],
      [
        "look",
        "s"
      ],
      [
        "N",
        "ot"
      ],
      [
        "are",
        "nt"
      ],
      [
        "A",
        "r"
      ],
      [
        "re",
        "le"
      ],
      [
        "was",
        "n"
      ],
      [
        "M",
        "ar"
      ],
      [
        "m",
        "oney"
      ],
      [
        "c",
        "ur"
      ],
      [
        "re",
        "commend"
      ],
      [
        "im",
        "ag"
      ],
      [
        "N",
        "e"
      ],
      [
        "under",
        "stand"
      ],
      [
        "on",
        "s"
      ],
      [
        "al",
        "ity"
      ],
      [
        "f",
        "all"
      ],
      [
        "ha",
        "ving"
      ],
      [
        "pie",
        "ce"
      ],
      [
        "fol",
        "low"
      ],
      [
        "fa",
        "ther"
      ],
      [
        "v",
        "ide"
      ],
      [
        "c",
        "over"
      ],
      [
        "b",
        "ly"
      ],
      [
        "at",
        "es"
      ],
      [
        "is",
        "m"
      ],
      [
        "f",
        "av"
      ],
      [
        "..",
        ".."
      ],
      [
        "tak",
        "es"
      ],
      [
        "u",
        "su"
      ],
      [
        "a",
        "h"
      ],
      [
        "sh",
        "ip"
      ],
      [
        "audi",
        "ence"
      ],
      [
        "r",
        "id"
      ],
      [
        "sa",
        "id"
      ],
      [
        "vers",
        "ion"
      ],
      [
        "c",
        "u"
      ],
      [
        "t",
        "s"
      ],
      [
        "en",
        "ces"
      ],
      [
        "some",
        "one"
      ],
      [
        "se",
        "cond"
      ],
      [
        "ell",
        "ent"
      ],
      [
        "el",
        "se"
      ],
      [
        "T",
        "o"
      ],
      [
        "e",
        "le"
      ],
      [
        "tr",
        "ue"
      ],
      [
        "gu",
        "e"
      ],
      [
        "wor",
        "d"
      ],
      [
        "i",
        "o"
      ],
      [
        "tem",
        "pt"
      ],
      [
        "n",
        "ice"
      ],
      [
        "spe",
        "cial"
      ],
      [
        "tr",
        "ay"
      ],
      [
        "re",
        "view"
      ],
      [
        "for",
        "m"
      ],
      [
        "R",
        "ob"
      ],
      [
        "h",
        "our"
      ],
      [
        "in",
        "cl"
      ],
      [
        "th",
        "ree"
      ],
      [
        "w",
        "ife"
      ],
      [
        "i",
        "x"
      ],
      [
        "al",
        "s"
      ],
      [
        "him",
        "self"
      ],
      [
        "R",
        "o"
      ],
      [
        "beg",
        "in"
      ],
      [
        "st",
        "y"
      ],
      [
        "an",
        "im"
      ],
      [
        "am",
        "es"
      ],
      [
        "le",
        "ft"
      ],
      [
        "A",
        "t"
      ],
      [
        "ly",
        "wood"
      ],
      [
        "ide",
        "a"
      ],
      [
        "ob",
        "vious"
      ],
      [
        "up",
        "id"
      ],
      [
        "every",
        "thing"
      ],
      [
        "inv",
        "ol"
      ],
      [
        "it",
        "ch"
      ],
      [
        "f",
        "ight"
      ],
      [
        "c",
        "ame"
      ],
      [
        "k",
        "es"
      ],
      [
        "ist",
        "s"
      ],
      [
        "S",
        "ome"
      ],
      [
        "re",
        "nt"
      ],
      [
        "he",
        "art"
      ],
      [
        "S",
        "te"
      ],
      [
        "m",
        "ur"
      ],
      [
        "st",
        "ar"
      ],
      [
        "ent",
        "ire"
      ],
      [
        "l",
        "ater"
      ],
      [
        "ro",
        "ss"
      ],
      [
        "see",
        "ing"
      ],
      [
        "imp",
        "ly"
      ],
      [
        "O",
        "n"
      ],
      [
        "g",
        "y"
      ],
      [
        "on",
        "es"
      ],
      [
        "it",
        "ed"
      ],
      [
        "ire",
        "d"
      ],
      [
        "h",
        "ouse"
      ],
      [
        "p",
        "ar"
      ],
      [
        "exc",
        "ellent"
      ],
      [
        "l",
        "ing"
      ],
      [
        "bud",
        "get"
      ],
      [
        "d",
        "en"
      ],
      [
        "D",
        "on"
      ],
      [
        "d",
        "uring"
      ],
      [
        "on",
        "ce"
      ],
      [
        "it",
        "ion"
      ],
      [
        "mis",
        "s"
      ],
      [
        "re",
        "g"
      ],
      [
        "every",
        "one"
      ],
      [
        "st",
        "upid"
      ],
      [
        "C",
        "ar"
      ],
      [
        "c",
        "ing"
      ],
      [
        "c",
        "op"
      ],
      [
        "end",
        "s"
      ],
      [
        "su",
        "per"
      ],
      [
        "ap",
        "point"
      ],
      [
        "lo",
        "c"
      ],
      [
        "0",
        "s"
      ],
      [
        "How",
        "ever"
      ],
      [
        "produ",
        "ction"
      ],
      [
        "part",
        "ic"
      ],
      [
        "us",
        "ing"
      ],
      [
        "re",
        "f"
      ],
      [
        "her",
        "o"
      ],
      [
        "f",
        "ace"
      ],
      [
        "at",
        "tempt"
      ],
      [
        "con",
        "v"
      ],
      [
        "op",
        "en"
      ],
      [
        "p",
        "ow"
      ],
      [
        "I",
        "N"
      ],
      [
        "er",
        "y"
      ],
      [
        "de",
        "ath"
      ],
      [
        "complete",
        "ly"
      ],
      [
        "gen",
        "er"
      ],
      [
        "su",
        "c"
      ],
      [
        "ser",
        "ious"
      ],
      [
        "W",
        "ell"
      ],
      [
        "h",
        "ome"
      ],
      [
        "u",
        "ck"
      ],
      [
        "friend",
        "s"
      ],
      [
        "por",
        "tray"
      ],
      [
        "other",
        "s"
      ],
      [
        "en",
        "g"
      ],
      [
        "cle",
        "ar"
      ],
      [
        "dis",
        "appoint"
      ],
      [
        "de",
        "fin"
      ],
      [
        "re",
        "member"
      ],
      [
        "P",
        "e"
      ],
      [
        "sol",
        "ute"
      ],
      [
        "s",
        "imply"
      ],
      [
        "p",
        "ass"
      ],
      [
        "c",
        "y"
      ],
      [
        "fort",
        "un"
      ],
      [
        "es",
        "e"
      ],
      [
        "s",
        "ort"
      ],
      [
        "are",
        "d"
      ],
      [
        "ri",
        "es"
      ],
      [
        "Hol",
        "lywood"
      ],
      [
        "ir",
        "d"
      ],
      [
        "sch",
        "ool"
      ],
      [
        "a",
        "ke"
      ],
      [
        "i",
        "er"
      ],
      [
        "al",
        "ong"
      ],
      [
        "e",
        "as"
      ],
      [
        "id",
        "ent"
      ],
      [
        "wr",
        "ong"
      ],
      [
        "s",
        "ong"
      ],
      [
        "om",
        "b"
      ],
      [
        "gi",
        "ven"
      ],
      [
        "n",
        "ed"
      ],
      [
        "B",
        "o"
      ],
      [
        "ter",
        "s"
      ],
      [
        "ch",
        "o"
      ],
      [
        "tr",
        "a"
      ],
      [
        "m",
        "ess"
      ],
      [
        "ure",
        "s"
      ],
      [
        "sid",
        "er"
      ],
      [
        "cam",
        "era"
      ],
      [
        "grap",
        "hy"
      ],
      [
        "e",
        "mot"
      ],
      [
        "A",
        "f"
      ],
      [
        "am",
        "p"
      ],
      [
        "c",
        "er"
      ],
      [
        "bor",
        "ing"
      ],
      [
        "bl",
        "ack"
      ],
      [
        "x",
        "t"
      ],
      [
        "mo",
        "ther"
      ],
      [
        "sup",
        "posed"
      ],
      [
        "qu",
        "e"
      ],
      [
        "e",
        "ither"
      ],
      [
        "fa",
        "ir"
      ],
      [
        "le",
        "y"
      ],
      [
        "kid",
        "s"
      ],
      [
        "p",
        "ain"
      ],
      [
        "s",
        "k"
      ],
      [
        "G",
        "r"
      ],
      [
        "performan",
        "ces"
      ],
      [
        "fa",
        "il"
      ],
      [
        "ne",
        "ar"
      ],
      [
        "S",
        "h"
      ],
      [
        "d",
        "ri"
      ],
      [
        "ab",
        "solute"
      ],
      [
        "itt",
        "en"
      ],
      [
        "cou",
        "n"
      ],
      [
        "A",
        "N"
      ],
      [
        "n",
        "ame"
      ],
      [
        "sm",
        "all"
      ],
      [
        "b",
        "and"
      ],
      [
        "sur",
        "pris"
      ],
      [
        "partic",
        "ular"
      ],
      [
        "f",
        "el"
      ],
      [
        "class",
        "ic"
      ],
      [
        "n",
        "um"
      ],
      [
        "cou",
        "ple"
      ],
      [
        "li",
        "g"
      ],
      [
        "ex",
        "cept"
      ],
      [
        "ex",
        "am"
      ],
      [
        "wom",
        "en"
      ],
      [
        "st",
        "re"
      ],
      [
        "M",
        "r"
      ],
      [
        "read",
        "y"
      ],
      [
        "aw",
        "ful"
      ],
      [
        "or",
        "y"
      ],
      [
        "unt",
        "il"
      ],
      [
        "fav",
        "or"
      ],
      [
        "fl",
        "ick"
      ],
      [
        "ha",
        "ps"
      ],
      [
        "get",
        "ting"
      ],
      [
        "li",
        "ve"
      ],
      [
        "w",
        "a"
      ],
      [
        "ful",
        "l"
      ],
      [
        "hum",
        "or"
      ],
      [
        "t",
        "on"
      ],
      [
        "n",
        "or"
      ],
      [
        "vi",
        "ol"
      ],
      [
        "all",
        "ow"
      ],
      [
        "g",
        "er"
      ],
      [
        "im",
        "e"
      ],
      [
        "ite",
        "ly"
      ],
      [
        "to",
        "w"
      ],
      [
        "C",
        "l"
      ],
      [
        "tru",
        "ly"
      ],
      [
        "de",
        "ad"
      ],
      [
        "vide",
        "o"
      ],
      [
        "fe",
        "ature"
      ],
      [
        "ot",
        "e"
      ],
      [
        "ve",
        "lo"
      ],
      [
        "l",
        "ines"
      ],
      [
        "su",
        "l"
      ],
      [
        "play",
        "ing"
      ],
      [
        "mom",
        "ents"
      ],
      [
        "s",
        "il"
      ],
      [
        "pre",
        "sent"
      ],
      [
        "it",
        "ies"
      ],
      [
        "p",
        "u"
      ],
      [
        "Af",
        "ter"
      ],
      [
        "ex",
        "peri"
      ],
      [
        "sc",
        "i"
      ],
      [
        "b",
        "ed"
      ],
      [
        "it",
        "self"
      ],
      [
        "con",
        "sider"
      ],
      [
        "i",
        "v"
      ],
      [
        "pow",
        "er"
      ],
      [
        "TH",
        "E"
      ],
      [
        "c",
        "ase"
      ],
      [
        "in",
        "stead"
      ],
      [
        "am",
        "az"
      ],
      [
        "mur",
        "der"
      ],
      [
        "in",
        "ess"
      ],
      [
        "p",
        "a"
      ],
      [
        "qu",
        "est"
      ],
      [
        "id",
        "es"
      ],
      [
        "tal",
        "ent"
      ],
      [
        "ter",
        "n"
      ],
      [
        "se",
        "ver"
      ],
      [
        "incl",
        "ud"
      ],
      [
        "s",
        "low"
      ],
      [
        "l",
        "ish"
      ],
      [
        "sty",
        "le"
      ],
      [
        "J",
        "ack"
      ],
      [
        "dram",
        "a"
      ],
      [
        "iz",
        "e"
      ],
      [
        "do",
        "ing"
      ],
      [
        "d",
        "ist"
      ],
      [
        "de",
        "velo"
      ],
      [
        "ne",
        "xt"
      ],
      [
        "E",
        "ven"
      ],
      [
        "or",
        "s"
      ],
      [
        "ment",
        "ion"
      ],
      [
        "il",
        "ity"
      ],
      [
        "s",
        "ad"
      ],
      [
        "an",
        "k"
      ],
      [
        "m",
        "ale"
      ],
      [
        "w",
        "al"
      ],
      [
        "ter",
        "rible"
      ],
      [
        "m",
        "ing"
      ],
      [
        "i",
        "ke"
      ],
      [
        "how",
        "ever"
      ],
      [
        "gi",
        "ves"
      ],
      [
        "M",
        "an"
      ],
      [
        "li",
        "ked"
      ],
      [
        "of",
        "ten"
      ],
      [
        "ar",
        "ing"
      ],
      [
        "D",
        "o"
      ],
      [
        "wr",
        "itten"
      ],
      [
        "w",
        "ent"
      ],
      [
        "al",
        "though"
      ],
      [
        "gu",
        "ess"
      ],
      [
        "may",
        "be"
      ],
      [
        "episo",
        "de"
      ],
      [
        "un",
        "ch"
      ],
      [
        "H",
        "is"
      ],
      [
        "lo",
        "ved"
      ],
      [
        "ear",
        "ly"
      ],
      [
        "n",
        "on"
      ],
      [
        "ag",
        "ed"
      ],
      [
        "ad",
        "v"
      ],
      [
        "wonder",
        "ful"
      ],
      [
        "dialo",
        "gue"
      ],
      [
        "im",
        "press"
      ],
      [
        "S",
        "p"
      ],
      [
        "b",
        "as"
      ],
      [
        "com",
        "ing"
      ],
      [
        "ho",
        "pe"
      ],
      [
        "on",
        "t"
      ],
      [
        "st",
        "ars"
      ],
      [
        "ro",
        "om"
      ],
      [
        "me",
        "et"
      ],
      [
        "con",
        "f"
      ],
      [
        "cine",
        "mat"
      ],
      [
        "D",
        "av"
      ],
      [
        "fel",
        "t"
      ],
      [
        "could",
        "n"
      ],
      [
        "cre",
        "di"
      ],
      [
        "str",
        "ong"
      ],
      [
        "tr",
        "ack"
      ],
      [
        "te",
        "en"
      ],
      [
        ",",
        "\""
      ],
      [
        "ag",
        "es"
      ],
      [
        "y",
        "s"
      ],
      [
        "ain",
        "s"
      ],
      [
        "l",
        "er"
      ],
      [
        "br",
        "illi"
      ],
      [
        "g",
        "n"
      ],
      [
        "L",
        "o"
      ],
      [
        "S",
        "T"
      ],
      [
        "end",
        "ed"
      ],
      [
        "bec",
        "ome"
      ],
      [
        "su",
        "pp"
      ],
      [
        "call",
        "ed"
      ],
      [
        "tow",
        "n"
      ],
      [
        "c",
        "li"
      ],
      [
        "ent",
        "ion"
      ],
      [
        "m",
        "or"
      ],
      [
        "g",
        "est"
      ],
      [
        "t",
        "ic"
      ],
      [
        "turn",
        "s"
      ],
      [
        "W",
        "ith"
      ],
      [
        "f",
        "ant"
      ],
      [
        "entertain",
        "ing"
      ],
      [
        "act",
        "ress"
      ],
      [
        "know",
        "n"
      ],
      [
        "child",
        "ren"
      ],
      [
        "E",
        "d"
      ],
      [
        "n",
        "i"
      ],
      [
        "gr",
        "ound"
      ],
      [
        "B",
        "l"
      ],
      [
        "m",
        "id"
      ],
      [
        "le",
        "ar"
      ],
      [
        "m",
        "aster"
      ],
      [
        "f",
        "re"
      ],
      [
        "Chr",
        "ist"
      ],
      [
        "w",
        "ish"
      ],
      [
        "re",
        "me"
      ],
      [
        "d",
        "ark"
      ],
      [
        "tit",
        "le"
      ],
      [
        "c",
        "a"
      ],
      [
        "sp",
        "ir"
      ],
      [
        "rel",
        "ation"
      ],
      [
        "develo",
        "p"
      ],
      [
        "ul",
        "ous"
      ],
      [
        "d",
        "ou"
      ],
      [
        "de",
        "li"
      ],
      [
        "cre",
        "d"
      ],
      [
        "bre",
        "ak"
      ],
      [
        "s",
        "po"
      ],
      [
        "poss",
        "ible"
      ],
      [
        "s",
        "at"
      ],
      [
        "m",
        "ark"
      ],
      [
        "J",
        "e"
      ],
      [
        "thr",
        "ill"
      ],
      [
        "absolute",
        "ly"
      ],
      [
        "wor",
        "se"
      ],
      [
        "sh",
        "o"
      ],
      [
        "a",
        "el"
      ],
      [
        "Ch",
        "ar"
      ],
      [
        "a",
        "x"
      ],
      [
        "l",
        "ist"
      ],
      [
        "guy",
        "s"
      ],
      [
        "or",
        "d"
      ],
      [
        "u",
        "es"
      ],
      [
        "begin",
        "ning"
      ],
      [
        "dire",
        "ction"
      ],
      [
        "T",
        "r"
      ],
      [
        "on",
        "y"
      ],
      [
        "ment",
        "ary"
      ],
      [
        "Ne",
        "w"
      ],
      [
        "defin",
        "itely"
      ],
      [
        "certain",
        "ly"
      ],
      [
        "was",
        "te"
      ],
      [
        "F",
        "ran"
      ],
      [
        "sel",
        "ves"
      ],
      [
        "ext",
        "reme"
      ],
      [
        "proble",
        "m"
      ],
      [
        "suc",
        "cess"
      ],
      [
        "again",
        "st"
      ],
      [
        "v",
        "able"
      ],
      [
        "C",
        "on"
      ],
      [
        "want",
        "ed"
      ],
      [
        "clo",
        "se"
      ],
      [
        "pict",
        "ure"
      ],
      [
        "fortun",
        "ately"
      ],
      [
        "cine",
        "ma"
      ],
      [
        "ant",
        "ly"
      ],
      [
        "Th",
        "en"
      ],
      [
        "E",
        "ng"
      ],
      [
        "R",
        "E"
      ],
      [
        "w",
        "in"
      ],
      [
        "re",
        "t"
      ],
      [
        "le",
        "g"
      ],
      [
        "p",
        "ri"
      ],
      [
        "u",
        "de"
      ],
      [
        "ie",
        "f"
      ],
      [
        "iz",
        "ed"
      ],
      [
        "p",
        "ite"
      ],
      [
        "i",
        "ed"
      ],
      [
        "seem",
        "ed"
      ],
      [
        "O",
        "f"
      ],
      [
        "M",
        "ich"
      ],
      [
        "ri",
        "f"
      ],
      [
        "bl",
        "ood"
      ],
      [
        "ev",
        "il"
      ],
      [
        "to",
        "t"
      ],
      [
        "su",
        "sp"
      ],
      [
        "u",
        "b"
      ],
      [
        "un",
        "i"
      ],
      [
        "Wh",
        "ile"
      ],
      [
        "de",
        "al"
      ],
      [
        "appe",
        "ar"
      ],
      [
        "lo",
        "g"
      ],
      [
        "sever",
        "al"
      ],
      [
        "Al",
        "so"
      ],
      [
        "f",
        "ine"
      ],
      [
        "d",
        "ict"
      ],
      [
        "g",
        "ame"
      ],
      [
        "work",
        "s"
      ],
      [
        "D",
        "r"
      ],
      [
        "gen",
        "re"
      ],
      [
        "al",
        "ready"
      ],
      [
        "b",
        "all"
      ],
      [
        "be",
        "comes"
      ],
      [
        "qu",
        "ality"
      ],
      [
        "b",
        "ased"
      ],
      [
        "vis",
        "ion"
      ],
      [
        "exam",
        "ple"
      ],
      [
        "po",
        "p"
      ],
      [
        "n",
        "am"
      ],
      [
        "tot",
        "ally"
      ],
      [
        "N",
        "ow"
      ],
      [
        "Mich",
        "ael"
      ],
      [
        "O",
        "N"
      ],
      [
        "if",
        "ic"
      ],
      [
        "p",
        "ur"
      ],
      [
        "li",
        "ves"
      ],
      [
        "Wh",
        "y"
      ],
      [
        "id",
        "ed"
      ],
      [
        "ps",
        "y"
      ],
      [
        "f",
        "ans"
      ],
      [
        "des",
        "er"
      ],
      [
        "d",
        "re"
      ],
      [
        "un",
        "d"
      ],
      [
        "M",
        "c"
      ],
      [
        "c",
        "as"
      ],
      [
        "p",
        "ast"
      ],
      [
        "J",
        "ust"
      ],
      [
        "c",
        "ult"
      ],
      [
        "d",
        "augh"
      ],
      [
        "p",
        "ort"
      ],
      [
        "gr",
        "ou"
      ],
      [
        "stu",
        "ff"
      ],
      [
        "supp",
        "ort"
      ],
      [
        "wr",
        "iting"
      ],
      [
        "2",
        "00"
      ],
      [
        "S",
        "c"
      ],
      [
        "in",
        "o"
      ],
      [
        "wr",
        "iter"
      ],
      [
        "cap",
        "t"
      ],
      [
        "H",
        "er"
      ],
      [
        "us",
        "es"
      ],
      [
        "ke",
        "y"
      ],
      [
        "b",
        "ar"
      ],
      [
        "h",
        "ind"
      ],
      [
        "is",
        "ter"
      ],
      [
        "day",
        "s"
      ],
      [
        "at",
        "ic"
      ],
      [
        "Rob",
        "ert"
      ],
      [
        "imp",
        "ort"
      ],
      [
        "D",
        "an"
      ],
      [
        "h",
        "old"
      ],
      [
        "to",
        "uch"
      ],
      [
        "lo",
        "st"
      ],
      [
        "want",
        "s"
      ],
      [
        "f",
        "oot"
      ],
      [
        "us",
        "s"
      ],
      [
        "G",
        "er"
      ],
      [
        "ag",
        "o"
      ],
      [
        "un",
        "k"
      ],
      [
        "!",
        "<"
      ],
      [
        "mat",
        "ter"
      ],
      [
        "at",
        "ur"
      ],
      [
        "v",
        "ill"
      ],
      [
        "G",
        "e"
      ],
      [
        "ou",
        "nt"
      ],
      [
        "view",
        "er"
      ],
      [
        ")",
        ".<"
      ],
      [
        "?",
        "?"
      ],
      [
        "part",
        "s"
      ],
      [
        "h",
        "on"
      ],
      [
        "cr",
        "it"
      ],
      [
        "M",
        "ay"
      ],
      [
        "v",
        "ic"
      ],
      [
        "an",
        "no"
      ],
      [
        "do",
        "cu"
      ],
      [
        "al",
        "i"
      ],
      [
        "col",
        "le"
      ],
      [
        "et",
        "c"
      ],
      [
        "through",
        "out"
      ],
      [
        "am",
        "s"
      ],
      [
        "N",
        "O"
      ],
      [
        "av",
        "ing"
      ],
      [
        "or",
        "ge"
      ],
      [
        "I",
        "s"
      ],
      [
        "de",
        "p"
      ],
      [
        "a",
        "im"
      ],
      [
        "le",
        "vel"
      ],
      [
        "E",
        "very"
      ],
      [
        "f",
        "ac"
      ],
      [
        "l",
        "ate"
      ],
      [
        "his",
        "tory"
      ],
      [
        "sc",
        "ore"
      ],
      [
        "ty",
        "pe"
      ],
      [
        "sit",
        "u"
      ],
      [
        "w",
        "ise"
      ],
      [
        "tri",
        "es"
      ],
      [
        "ad",
        "m"
      ],
      [
        "ang",
        "er"
      ],
      [
        "ar",
        "ch"
      ],
      [
        "ty",
        "p"
      ],
      [
        "ant",
        "ic"
      ],
      [
        "h",
        "ilar"
      ],
      [
        "g",
        "ave"
      ],
      [
        "R",
        "i"
      ],
      [
        "usu",
        "al"
      ],
      [
        "j",
        "or"
      ],
      [
        "enjoy",
        "ed"
      ],
      [
        "fin",
        "al"
      ],
      [
        "f",
        "ig"
      ],
      [
        "kill",
        "ed"
      ],
      [
        "ri",
        "ed"
      ],
      [
        "p",
        "rom"
      ],
      [
        "d",
        "ie"
      ],
      [
        "lo",
        "ck"
      ],
      [
        "W",
        "ar"
      ],
      [
        "cont",
        "in"
      ],
      [
        "fin",
        "ally"
      ],
      [
        "amaz",
        "ing"
      ],
      [
        "int",
        "el"
      ],
      [
        "no",
        "vel"
      ],
      [
        "to",
        "day"
      ],
      [
        "p",
        "ick"
      ],
      [
        "L",
        "u"
      ],
      [
        "su",
        "m"
      ],
      [
        "favor",
        "ite"
      ],
      [
        "C",
        "o"
      ],
      [
        "them",
        "selves"
      ],
      [
        "kill",
        "er"
      ],
      [
        "hor",
        "rible"
      ],
      [
        "un",
        "g"
      ],
      [
        "st",
        "ay"
      ],
      [
        "my",
        "ster"
      ],
      [
        "de",
        "cent"
      ],
      [
        "be",
        "hind"
      ],
      [
        "grou",
        "p"
      ],
      [
        "ke",
        "t"
      ],
      [
        "mom",
        "ent"
      ],
      [
        "d",
        "ing"
      ],
      [
        "look",
        "ed"
      ],
      [
        "A",
        "L"
      ],
      [
        "start",
        "s"
      ],
      [
        "ey",
        "es"
      ],
      [
        "daugh",
        "ter"
      ],
      [
        "e",
        "k"
      ],
      [
        "pr",
        "of"
      ],
      [
        "ex",
        "act"
      ],
      [
        "spe",
        "ak"
      ],
      [
        "my",
        "self"
      ],
      [
        "sh",
        "oot"
      ],
      [
        "belie",
        "vable"
      ],
      [
        "com",
        "pl"
      ],
      [
        "tr",
        "ans"
      ],
      [
        "think",
        "ing"
      ],
      [
        "ch",
        "ang"
      ],
      [
        "st",
        "ud"
      ],
      [
        "he",
        "ard"
      ],
      [
        "b",
        "ing"
      ],
      [
        "a",
        "il"
      ],
      [
        "av",
        "es"
      ],
      [
        "G",
        "od"
      ],
      [
        "per",
        "haps"
      ],
      [
        "pre",
        "dict"
      ],
      [
        "sto",
        "p"
      ],
      [
        "brilli",
        "ant"
      ],
      [
        "b",
        "us"
      ],
      [
        "A",
        "ny"
      ],
      [
        "say",
        "s"
      ],
      [
        "too",
        "k"
      ],
      [
        "rid",
        "ic"
      ],
      [
        "wh",
        "ite"
      ],
      [
        "H",
        "ar"
      ],
      [
        "B",
        "ar"
      ],
      [
        "er",
        "ed"
      ],
      [
        "P",
        "a"
      ],
      [
        "ef",
        "fort"
      ],
      [
        "girl",
        "s"
      ],
      [
        "A",
        "T"
      ],
      [
        "direct",
        "ed"
      ],
      [
        "cou",
        "nt"
      ],
      [
        "vo",
        "ice"
      ],
      [
        "experi",
        "ence"
      ],
      [
        "are",
        "n"
      ],
      [
        "in",
        "ation"
      ],
      [
        "m",
        "as"
      ],
      [
        "hilar",
        "ious"
      ],
      [
        "o",
        "graphy"
      ],
      [
        "or",
        "der"
      ],
      [
        "happ",
        "ens"
      ],
      [
        "ap",
        "pro"
      ],
      [
        "b",
        "ers"
      ],
      [
        "mo",
        "ve"
      ],
      [
        "des",
        "c"
      ],
      [
        "Br",
        "it"
      ],
      [
        "l",
        "an"
      ],
      [
        "ma",
        "g"
      ],
      [
        "feel",
        "ing"
      ],
      [
        "so",
        "on"
      ],
      [
        "in",
        "credi"
      ],
      [
        "ta",
        "il"
      ],
      [
        "te",
        "ch"
      ],
      [
        "A",
        "d"
      ],
      [
        "ot",
        "t"
      ],
      [
        "to",
        "ld"
      ],
      [
        "po",
        "se"
      ],
      [
        "g",
        "un"
      ],
      [
        "c",
        "ool"
      ],
      [
        "us",
        "band"
      ],
      [
        "te",
        "le"
      ],
      [
        "h",
        "op"
      ],
      [
        "s",
        "le"
      ],
      [
        "g",
        "ar"
      ],
      [
        "er",
        "ing"
      ],
      [
        "Dav",
        "id"
      ],
      [
        "ap",
        "t"
      ],
      [
        "invol",
        "ved"
      ],
      [
        "um",
        "p"
      ],
      [
        "O",
        "r"
      ],
      [
        "tak",
        "ing"
      ],
      [
        "d",
        "le"
      ],
      [
        "v",
        "ar"
      ],
      [
        "ure",
        "d"
      ],
      [
        "P",
        "er"
      ],
      [
        "M",
        "e"
      ],
      [
        "p",
        "ay"
      ],
      [
        "ma",
        "jor"
      ],
      [
        "tr",
        "act"
      ],
      [
        "l",
        "ar"
      ],
      [
        "turn",
        "ed"
      ],
      [
        "r",
        "is"
      ],
      [
        "h",
        "it"
      ],
      [
        "at",
        "or"
      ],
      [
        "ain",
        "ed"
      ],
      [
        "ridic",
        "ulous"
      ],
      [
        ".",
        ")"
      ],
      [
        "conv",
        "in"
      ],
      [
        "r",
        "ating"
      ],
      [
        "sto",
        "ries"
      ],
      [
        "we",
        "ak"
      ],
      [
        "h",
        "usband"
      ],
      [
        "sho",
        "ck"
      ],
      [
        "grap",
        "h"
      ],
      [
        "en",
        "e"
      ],
      [
        "ev",
        "ent"
      ],
      [
        "ast",
        "ic"
      ],
      [
        "um",
        "b"
      ],
      [
        "op",
        "in"
      ],
      [
        "ro",
        "les"
      ],
      [
        "ard",
        "s"
      ],
      [
        "che",
        "ap"
      ],
      [
        "br",
        "ing"
      ],
      [
        "J",
        "ames"
      ],
      [
        "O",
        "h"
      ],
      [
        "pol",
        "it"
      ],
      [
        "s",
        "we"
      ],
      [
        "can",
        "not"
      ],
      [
        "an",
        "n"
      ],
      [
        "ren",
        "ch"
      ],
      [
        "mem",
        "or"
      ],
      [
        "cr",
        "ap"
      ],
      [
        "mak",
        "ers"
      ],
      [
        "at",
        "s"
      ],
      [
        "ch",
        "ange"
      ],
      [
        "extreme",
        "ly"
      ],
      [
        "ch",
        "ance"
      ],
      [
        "includ",
        "ing"
      ],
      [
        "sy",
        "m"
      ],
      [
        "sim",
        "ilar"
      ],
      [
        "is",
        "s"
      ],
      [
        "re",
        "cent"
      ],
      [
        "pol",
        "ice"
      ],
      [
        "2",
        "0"
      ],
      [
        "T",
        "om"
      ],
      [
        "re",
        "sul"
      ],
      [
        "in",
        "st"
      ],
      [
        "viol",
        "ence"
      ],
      [
        "an",
        "ces"
      ],
      [
        "real",
        "istic"
      ],
      [
        "U",
        "S"
      ],
      [
        "le",
        "ave"
      ],
      [
        "el",
        "s"
      ],
      [
        "Eng",
        "lish"
      ],
      [
        "qu",
        "ick"
      ],
      [
        "s",
        "w"
      ],
      [
        "O",
        "K"
      ],
      [
        "sh",
        "own"
      ],
      [
        "ur",
        "t"
      ],
      [
        "would",
        "n"
      ],
      [
        "expect",
        "ed"
      ],
      [
        "ro",
        "ll"
      ],
      [
        "particular",
        "ly"
      ],
      [
        "happen",
        "ed"
      ],
      [
        "I",
        "L"
      ],
      [
        "pl",
        "an"
      ],
      [
        "tak",
        "en"
      ],
      [
        "mus",
        "ical"
      ],
      [
        "w",
        "it"
      ],
      [
        "sc",
        "ar"
      ],
      [
        "dou",
        "b"
      ],
      [
        "o",
        "to"
      ],
      [
        "obvious",
        "ly"
      ],
      [
        "ow",
        "s"
      ],
      [
        "sim",
        "ple"
      ],
      [
        "v",
        "il"
      ],
      [
        "pe",
        "t"
      ],
      [
        "it",
        "ive"
      ],
      [
        "v",
        "ir"
      ],
      [
        "coun",
        "try"
      ],
      [
        "di",
        "es"
      ],
      [
        "l",
        "ad"
      ],
      [
        "ward",
        "s"
      ],
      [
        "f",
        "oc"
      ],
      [
        "ation",
        "al"
      ],
      [
        "app",
        "arent"
      ],
      [
        "sub",
        "ject"
      ],
      [
        "C",
        "om"
      ],
      [
        "o",
        "k"
      ],
      [
        "jo",
        "kes"
      ],
      [
        "rele",
        "ased"
      ],
      [
        "br",
        "other"
      ],
      [
        "F",
        "irst"
      ],
      [
        "ar",
        "is"
      ],
      [
        "r",
        "ated"
      ],
      [
        "ple",
        "as"
      ],
      [
        "for",
        "get"
      ],
      [
        "anno",
        "ying"
      ],
      [
        "19",
        "7"
      ],
      [
        "C",
        "ol"
      ],
      [
        "mo",
        "der"
      ],
      [
        "real",
        "ity"
      ],
      [
        "s",
        "or"
      ],
      [
        "care",
        "er"
      ],
      [
        "f",
        "our"
      ],
      [
        "ac",
        "ross"
      ],
      [
        "bu",
        "ild"
      ],
      [
        "en",
        "n"
      ],
      [
        "open",
        "ing"
      ],
      [
        "m",
        "al"
      ],
      [
        "od",
        "d"
      ],
      [
        "i",
        "b"
      ],
      [
        "W",
        "or"
      ],
      [
        "Al",
        "though"
      ],
      [
        "susp",
        "ense"
      ],
      [
        "ie",
        "ty"
      ],
      [
        "I",
        "M"
      ],
      [
        "al",
        "one"
      ],
      [
        "high",
        "ly"
      ],
      [
        "k",
        "y"
      ],
      [
        "A",
        "R"
      ],
      [
        "de",
        "ep"
      ],
      [
        "a",
        "ther"
      ],
      [
        "ent",
        "ial"
      ],
      [
        "do",
        "g"
      ],
      [
        "relation",
        "ship"
      ],
      [
        "itt",
        "ing"
      ],
      [
        "ph",
        "oto"
      ],
      [
        "some",
        "times"
      ],
      [
        "h",
        "ot"
      ],
      [
        "shot",
        "s"
      ],
      [
        "!!",
        "!"
      ],
      [
        "cli",
        "ch"
      ],
      [
        "word",
        "s"
      ],
      [
        "19",
        "8"
      ],
      [
        "dialo",
        "g"
      ],
      [
        "in",
        "a"
      ],
      [
        "ie",
        "ld"
      ],
      [
        "hu",
        "ge"
      ],
      [
        "..",
        ".<"
      ],
      [
        "say",
        "ing"
      ],
      [
        "go",
        "re"
      ],
      [
        "f",
        "ut"
      ],
      [
        "su",
        "ff"
      ],
      [
        "dr",
        "aw"
      ],
      [
        "exact",
        "ly"
      ],
      [
        "ur",
        "y"
      ],
      [
        "hour",
        "s"
      ],
      [
        "docu",
        "mentary"
      ],
      [
        "n",
        "one"
      ],
      [
        "ent",
        "ly"
      ],
      [
        "import",
        "ant"
      ],
      [
        "your",
        "self"
      ],
      [
        "re",
        "spect"
      ],
      [
        "who",
        "se"
      ],
      [
        "M",
        "or"
      ],
      [
        "str",
        "ange"
      ],
      [
        "c",
        "ause"
      ],
      [
        "r",
        "ic"
      ],
      [
        "p",
        "arent"
      ],
      [
        "O",
        "R"
      ],
      [
        "num",
        "ber"
      ],
      [
        "re",
        "w"
      ],
      [
        "f",
        "er"
      ],
      [
        "i",
        "ves"
      ],
      [
        "S",
        "u"
      ],
      [
        "start",
        "ed"
      ],
      [
        "s",
        "ave"
      ],
      [
        "O",
        "ver"
      ],
      [
        "opin",
        "ion"
      ],
      [
        "co",
        "st"
      ],
      [
        "usu",
        "ally"
      ],
      [
        "t",
        "reat"
      ],
      [
        "happ",
        "y"
      ],
      [
        "cinemat",
        "ography"
      ],
      [
        "li",
        "ving"
      ],
      [
        "m",
        "ist"
      ],
      [
        "che",
        "ck"
      ],
      [
        "char",
        "d"
      ],
      [
        "bo",
        "x"
      ],
      [
        "N",
        "or"
      ],
      [
        "com",
        "ment"
      ],
      [
        "il",
        "i"
      ],
      [
        "st",
        "ra"
      ],
      [
        "p",
        "ot"
      ],
      [
        "W",
        "illi"
      ],
      [
        "ent",
        "y"
      ],
      [
        "Pa",
        "ul"
      ],
      [
        "ro",
        "du"
      ],
      [
        "n",
        "arr"
      ],
      [
        "hon",
        "est"
      ],
      [
        "W",
        "al"
      ],
      [
        "pl",
        "ac"
      ],
      [
        "appe",
        "ars"
      ],
      [
        "w",
        "he"
      ],
      [
        "dis",
        "cover"
      ],
      [
        "fe",
        "male"
      ],
      [
        "run",
        "ning"
      ],
      [
        "P",
        "r"
      ],
      [
        "moder",
        "n"
      ],
      [
        "f",
        "ire"
      ],
      [
        "ou",
        "th"
      ],
      [
        "ex",
        "ist"
      ],
      [
        "lear",
        "n"
      ],
      [
        "ish",
        "ed"
      ],
      [
        "as",
        "k"
      ],
      [
        "des",
        "pite"
      ],
      [
        "sequ",
        "ence"
      ],
      [
        "ap",
        "pre"
      ],
      [
        "he",
        "ll"
      ],
      [
        "some",
        "what"
      ],
      [
        "dr",
        "ug"
      ],
      [
        "es",
        "tern"
      ],
      [
        "st",
        "ick"
      ],
      [
        "**",
        "**"
      ],
      [
        "s",
        "ign"
      ],
      [
        "disappoint",
        "ed"
      ],
      [
        "ab",
        "o"
      ],
      [
        "de",
        "tail"
      ],
      [
        "stra",
        "ight"
      ],
      [
        "predict",
        "able"
      ],
      [
        "le",
        "ct"
      ],
      [
        "loc",
        "al"
      ],
      [
        "ac",
        "c"
      ],
      [
        "find",
        "s"
      ],
      [
        "k",
        "new"
      ],
      [
        "pp",
        "ed"
      ],
      [
        "w",
        "er"
      ],
      [
        "the",
        "tic"
      ],
      [
        "att",
        "ention"
      ],
      [
        "Ri",
        "chard"
      ],
      [
        "know",
        "s"
      ],
      [
        "li",
        "es"
      ],
      [
        "sil",
        "ly"
      ],
      [
        "IN",
        "G"
      ],
      [
        "tal",
        "k"
      ],
      [
        "set",
        "s"
      ],
      [
        "l",
        "a"
      ],
      [
        "sing",
        "le"
      ],
      [
        "tal",
        "king"
      ],
      [
        "m",
        "il"
      ],
      [
        "ap",
        "an"
      ],
      [
        "so",
        "ld"
      ],
      [
        "n",
        "atur"
      ],
      [
        "a",
        "ver"
      ],
      [
        "ant",
        "s"
      ],
      [
        "19",
        "9"
      ],
      [
        "E",
        "N"
      ],
      [
        "in",
        "ed"
      ],
      [
        "pre",
        "s"
      ],
      [
        "gi",
        "ving"
      ],
      [
        "d",
        "est"
      ],
      [
        "er",
        "ial"
      ],
      [
        "proble",
        "ms"
      ],
      [
        "th",
        "or"
      ],
      [
        "b",
        "al"
      ],
      [
        "am",
        "ong"
      ],
      [
        "fam",
        "ous"
      ],
      [
        "re",
        "mind"
      ],
      [
        "!",
        "\""
      ],
      [
        "be",
        "y"
      ],
      [
        "te",
        "am"
      ],
      [
        "su",
        "ck"
      ],
      [
        "g",
        "ang"
      ],
      [
        "most",
        "ly"
      ],
      [
        "C",
        "r"
      ],
      [
        "pre",
        "m"
      ],
      [
        "mid",
        "dle"
      ],
      [
        "i",
        "k"
      ],
      [
        "I",
        "S"
      ],
      [
        "du",
        "e"
      ],
      [
        "ab",
        "y"
      ],
      [
        "o",
        "id"
      ],
      [
        "cr",
        "u"
      ],
      [
        "at",
        "mo"
      ],
      [
        "g",
        "an"
      ],
      [
        "ag",
        "on"
      ],
      [
        "episo",
        "des"
      ],
      [
        "az",
        "y"
      ],
      [
        "ut",
        "ter"
      ],
      [
        "ou",
        "d"
      ],
      [
        "J",
        "apan"
      ],
      [
        "pro",
        "v"
      ],
      [
        "appre",
        "ci"
      ],
      [
        "e",
        "qu"
      ],
      [
        "y",
        "es"
      ],
      [
        "fr",
        "ont"
      ],
      [
        "B",
        "ro"
      ],
      [
        "ou",
        "l"
      ],
      [
        "r",
        "al"
      ],
      [
        "sh",
        "i"
      ],
      [
        "f",
        "ast"
      ],
      [
        "wr",
        "it"
      ],
      [
        "intel",
        "lig"
      ],
      [
        "it",
        "al"
      ],
      [
        "atmo",
        "sp"
      ],
      [
        "ey",
        "e"
      ],
      [
        "Brit",
        "ish"
      ],
      [
        "ne",
        "cess"
      ],
      [
        "C",
        "an"
      ],
      [
        "quest",
        "ion"
      ],
      [
        "clich",
        "é"
      ],
      [
        "in",
        "c"
      ],
      [
        "sequ",
        "ences"
      ],
      [
        "ie",
        "t"
      ],
      [
        "el",
        "ess"
      ],
      [
        "g",
        "ed"
      ],
      [
        "ev",
        "ents"
      ],
      [
        "v",
        "ol"
      ],
      [
        "at",
        "ter"
      ],
      [
        "tell",
        "s"
      ],
      [
        "I",
        "I"
      ],
      [
        "mov",
        "ing"
      ],
      [
        "ab",
        "ility"
      ],
      [
        "sc",
        "ary"
      ],
      [
        "tele",
        "vision"
      ],
      [
        "h",
        "ol"
      ],
      [
        "G",
        "o"
      ],
      [
        "D",
        "is"
      ],
      [
        "pr",
        "ise"
      ],
      [
        "is",
        "ed"
      ],
      [
        "S",
        "am"
      ],
      [
        "us",
        "ion"
      ],
      [
        "B",
        "en"
      ],
      [
        "Y",
        "es"
      ],
      [
        "rom",
        "antic"
      ],
      [
        "Ge",
        "orge"
      ],
      [
        "m",
        "ix"
      ],
      [
        "l",
        "aw"
      ],
      [
        "sex",
        "ual"
      ],
      [
        "F",
        "rom"
      ],
      [
        "h",
        "ate"
      ],
      [
        "sound",
        "track"
      ],
      [
        "f",
        "ree"
      ],
      [
        "thrill",
        "er"
      ],
      [
        "May",
        "be"
      ],
      [
        "G",
        "u"
      ],
      [
        "or",
        "k"
      ],
      [
        "up",
        "on"
      ],
      [
        "pre",
        "vious"
      ],
      [
        "str",
        "u"
      ],
      [
        "P",
        "o"
      ],
      [
        "fall",
        "s"
      ],
      [
        "ot",
        "ic"
      ],
      [
        "cre",
        "t"
      ],
      [
        "S",
        "ha"
      ],
      [
        "ce",
        "ed"
      ],
      [
        "ke",
        "pt"
      ],
      [
        "ri",
        "p"
      ],
      [
        "serious",
        "ly"
      ],
      [
        "se",
        "ason"
      ],
      [
        "E",
        "l"
      ],
      [
        "ac",
        "y"
      ],
      [
        "enjoy",
        "able"
      ],
      [
        "se",
        "arch"
      ],
      [
        "Wh",
        "o"
      ],
      [
        "com",
        "ic"
      ],
      [
        "P",
        "l"
      ],
      [
        "d",
        "ull"
      ],
      [
        "song",
        "s"
      ],
      [
        "Chr",
        "is"
      ],
      [
        "ot",
        "s"
      ],
      [
        "ap",
        "art"
      ],
      [
        "p",
        "at"
      ],
      [
        "ag",
        "ree"
      ],
      [
        "mat",
        "erial"
      ],
      [
        "B",
        "y"
      ],
      [
        "spo",
        "il"
      ],
      [
        "re",
        "s"
      ],
      [
        "are",
        "ly"
      ],
      [
        "nam",
        "ed"
      ],
      [
        "is",
        "su"
      ],
      [
        "diff",
        "ic"
      ],
      [
        "ha",
        "ven"
      ],
      [
        "au",
        "ght"
      ],
      [
        "l",
        "ie"
      ],
      [
        "tw",
        "ist"
      ],
      [
        "as",
        "pect"
      ],
      [
        "set",
        "ting"
      ],
      [
        "Un",
        "fortunately"
      ],
      [
        "bey",
        "ond"
      ],
      [
        "work",
        "ing"
      ],
      [
        "car",
        "to"
      ],
      [
        "P",
        "h"
      ],
      [
        "st",
        "age"
      ],
      [
        "po",
        "st"
      ],
      [
        "E",
        "x"
      ],
      [
        "d",
        "ro"
      ],
      [
        "doub",
        "t"
      ],
      [
        "att",
        "le"
      ],
      [
        "ac",
        "cept"
      ],
      [
        "d",
        "an"
      ],
      [
        "Fran",
        "k"
      ],
      [
        "d",
        "el"
      ],
      [
        "eas",
        "y"
      ],
      [
        "rele",
        "ase"
      ],
      [
        "vis",
        "ual"
      ],
      [
        "sequ",
        "el"
      ],
      [
        "mess",
        "age"
      ],
      [
        "clear",
        "ly"
      ],
      [
        "abo",
        "ve"
      ],
      [
        "i",
        "bly"
      ],
      [
        "eas",
        "ily"
      ],
      [
        "pu",
        "bl"
      ],
      [
        "f",
        "ell"
      ],
      [
        "vic",
        "tim"
      ],
      [
        "fut",
        "ure"
      ],
      [
        "fl",
        "aw"
      ],
      [
        "In",
        "di"
      ],
      [
        "so",
        "c"
      ],
      [
        "F",
        "il"
      ],
      [
        "surpris",
        "ed"
      ],
      [
        "person",
        "al"
      ],
      [
        "tri",
        "ed"
      ],
      [
        "need",
        "s"
      ],
      [
        "M",
        "on"
      ],
      [
        "s",
        "n"
      ],
      [
        "z",
        "omb"
      ],
      [
        "the",
        "at"
      ],
      [
        "cl",
        "aim"
      ],
      [
        "su",
        "g"
      ],
      [
        "s",
        "light"
      ],
      [
        "cre",
        "ep"
      ],
      [
        "ens",
        "ion"
      ],
      [
        "entertain",
        "ment"
      ],
      [
        "parent",
        "s"
      ],
      [
        "F",
        "rench"
      ],
      [
        "act",
        "ed"
      ],
      [
        "Pe",
        "ter"
      ],
      [
        "ad",
        "ult"
      ],
      [
        "l",
        "im"
      ],
      [
        "tr",
        "ou"
      ],
      [
        "con",
        "st"
      ],
      [
        "re",
        "nd"
      ],
      [
        "st",
        "ate"
      ],
      [
        "b",
        "an"
      ],
      [
        "ri",
        "ch"
      ],
      [
        "tell",
        "ing"
      ],
      [
        "show",
        "ing"
      ],
      [
        "to",
        "m"
      ],
      [
        "point",
        "s"
      ],
      [
        "h",
        "ar"
      ],
      [
        "Mo",
        "st"
      ],
      [
        "b",
        "unch"
      ],
      [
        "as",
        "y"
      ],
      [
        "5",
        "0"
      ],
      [
        "the",
        "me"
      ],
      [
        "re",
        "sp"
      ],
      [
        "t",
        "le"
      ],
      [
        "peri",
        "od"
      ],
      [
        "view",
        "ing"
      ],
      [
        "c",
        "ity"
      ],
      [
        "m",
        "atch"
      ],
      [
        "re",
        "ve"
      ],
      [
        "r",
        "ound"
      ],
      [
        "story",
        "line"
      ],
      [
        "d",
        "am"
      ],
      [
        "for",
        "ward"
      ],
      [
        "sug",
        "gest"
      ],
      [
        "lar",
        "ge"
      ],
      [
        "en",
        "ing"
      ],
      [
        "de",
        "ed"
      ],
      [
        "in",
        "no"
      ],
      [
        "se",
        "m"
      ],
      [
        "u",
        "ro"
      ],
      [
        "act",
        "ual"
      ],
      [
        "att",
        "ack"
      ],
      [
        "ct",
        "ive"
      ],
      [
        "L",
        "ike"
      ],
      [
        "?",
        "<"
      ],
      [
        "pa",
        "thetic"
      ],
      [
        "min",
        "ute"
      ],
      [
        "mean",
        "ing"
      ],
      [
        "film",
        "ed"
      ],
      [
        "pp",
        "ing"
      ],
      [
        "he",
        "ar"
      ],
      [
        "!!",
        "!!"
      ],
      [
        "D",
        "ire"
      ],
      [
        "cont",
        "ro"
      ],
      [
        "support",
        "ing"
      ],
      [
        "oo",
        "se"
      ],
      [
        "re",
        "pe"
      ],
      [
        "ut",
        "ion"
      ],
      [
        "3",
        "0"
      ],
      [
        "typ",
        "ical"
      ],
      [
        "p",
        "ath"
      ],
      [
        "'",
        ","
      ],
      [
        "me",
        "ans"
      ],
      [
        "B",
        "er"
      ],
      [
        "w",
        "ater"
      ],
      [
        "with",
        "in"
      ],
      [
        "feel",
        "s"
      ],
      [
        "fl",
        "u"
      ],
      [
        "com",
        "ments"
      ],
      [
        "cl",
        "im"
      ],
      [
        "i",
        "ally"
      ],
      [
        "ro",
        "ck"
      ],
      [
        "her",
        "self"
      ],
      [
        "om",
        "in"
      ],
      [
        "dec",
        "ided"
      ],
      [
        "ele",
        "ments"
      ],
      [
        "J",
        "im"
      ],
      [
        "tal",
        "e"
      ],
      [
        "dram",
        "atic"
      ],
      [
        "diffic",
        "ult"
      ],
      [
        "s",
        "ister"
      ],
      [
        "y",
        "p"
      ],
      [
        "over",
        "all"
      ],
      [
        "K",
        "e"
      ],
      [
        "!",
        ")"
      ],
      [
        "k",
        "ick"
      ],
      [
        "te",
        "ach"
      ],
      [
        "O",
        "scar"
      ],
      [
        "h",
        "om"
      ],
      [
        "s",
        "es"
      ],
      [
        "view",
        "ers"
      ],
      [
        "l",
        "in"
      ],
      [
        "ow",
        "ing"
      ],
      [
        "Q",
        "u"
      ],
      [
        "f",
        "ive"
      ],
      [
        "tru",
        "th"
      ],
      [
        "ed",
        "iting"
      ],
      [
        "ro",
        "b"
      ],
      [
        "di",
        "v"
      ],
      [
        "G",
        "ood"
      ],
      [
        "H",
        "o"
      ],
      [
        "im",
        "ent"
      ],
      [
        "com",
        "b"
      ],
      [
        "int",
        "rodu"
      ],
      [
        "ne",
        "t"
      ],
      [
        "fl",
        "ash"
      ],
      [
        "Y",
        "ork"
      ],
      [
        "kill",
        "s"
      ],
      [
        "bu",
        "y"
      ],
      [
        "L",
        "E"
      ],
      [
        "s",
        "ha"
      ],
      [
        "h",
        "ood"
      ],
      [
        "r",
        "ate"
      ],
      [
        "W",
        "atch"
      ],
      [
        "near",
        "ly"
      ],
      [
        "m",
        "ill"
      ],
      [
        "i",
        "ans"
      ],
      [
        "bo",
        "ard"
      ],
      [
        "desc",
        "ri"
      ],
      [
        "w",
        "ind"
      ],
      [
        "br",
        "ought"
      ],
      [
        "It",
        "s"
      ],
      [
        "amp",
        "ire"
      ],
      [
        "fig",
        "ure"
      ],
      [
        "ex",
        "press"
      ],
      [
        "stre",
        "et"
      ],
      [
        "S",
        "ch"
      ],
      [
        "cam",
        "p"
      ],
      [
        "whe",
        "ther"
      ],
      [
        "review",
        "s"
      ],
      [
        "It",
        "al"
      ],
      [
        "lead",
        "s"
      ],
      [
        "f",
        "i"
      ],
      [
        "bus",
        "iness"
      ],
      [
        "D",
        "es"
      ],
      [
        "as",
        "c"
      ],
      [
        "r",
        "ad"
      ],
      [
        "ac",
        "cent"
      ],
      [
        "Americ",
        "a"
      ],
      [
        "writ",
        "ers"
      ],
      [
        "A",
        "ng"
      ],
      [
        "z",
        "e"
      ],
      [
        "en",
        "er"
      ],
      [
        "v",
        "an"
      ],
      [
        "w",
        "o"
      ],
      [
        "dre",
        "am"
      ],
      [
        "m",
        "el"
      ],
      [
        "es",
        "y"
      ],
      [
        "c",
        "atch"
      ],
      [
        "wa",
        "it"
      ],
      [
        "back",
        "ground"
      ],
      [
        "j",
        "ud"
      ],
      [
        "u",
        "gh"
      ],
      [
        "the",
        "ater"
      ],
      [
        "li",
        "er"
      ],
      [
        "great",
        "est"
      ],
      [
        "con",
        "s"
      ],
      [
        "beg",
        "ins"
      ],
      [
        "ref",
        "er"
      ],
      [
        "bas",
        "ically"
      ],
      [
        "K",
        "ing"
      ],
      [
        "tr",
        "ain"
      ],
      [
        "cr",
        "ime"
      ],
      [
        "con",
        "ne"
      ],
      [
        "ict",
        "ion"
      ],
      [
        "g",
        "one"
      ],
      [
        "prem",
        "ise"
      ],
      [
        "l",
        "s"
      ],
      [
        "atmosp",
        "here"
      ],
      [
        "ate",
        "ver"
      ],
      [
        "V",
        "ER"
      ],
      [
        "r",
        "on"
      ],
      [
        "NO",
        "T"
      ],
      [
        "for",
        "ced"
      ],
      [
        "Ger",
        "man"
      ],
      [
        "lot",
        "s"
      ],
      [
        "cre",
        "w"
      ],
      [
        "n",
        "ature"
      ],
      [
        "th",
        "y"
      ],
[...]
